{
  "<s>": 0,
  "<pad>": 1,
  "</s>": 2,
  "<unk>": 3,
  "<mask>": 4,
  "!": 5,
  "\"": 6,
  "#": 7,
  "$": 8,
  "%": 9,
  "&": 10,
  "'": 11,
  "(": 12,
  ")": 13,
  "*": 14,
  "+": 15,
  ",": 16,
  "-": 17,
  ".": 18,
  "/": 19,
  "0": 20,
  "1": 21,
  "2": 22,
  "3": 23,
  "4": 24,
  "5": 25,
  "6": 26,
  "7": 27,
  "8": 28,
  "9": 29,
  ":": 30,
  ";": 31,
  "<": 32,
  "=": 33,
  ">": 34,
  "?": 35,
  "@": 36,
  "[": 37,
  "\\": 38,
  "]": 39,
  "^": 40,
  "_": 41,
  "`": 42,
  "a": 43,
  "b": 44,
  "c": 45,
  "d": 46,
  "e": 47,
  "f": 48,
  "g": 49,
  "h": 50,
  "i": 51,
  "j": 52,
  "k": 53,
  "l": 54,
  "m": 55,
  "n": 56,
  "o": 57,
  "p": 58,
  "q": 59,
  "r": 60,
  "s": 61,
  "t": 62,
  "u": 63,
  "v": 64,
  "w": 65,
  "x": 66,
  "y": 67,
  "z": 68,
  "{": 69,
  "}": 70,
  "~": 71,
  "¡": 72,
  "¢": 73,
  "£": 74,
  "¤": 75,
  "¥": 76,
  "¦": 77,
  "§": 78,
  "¨": 79,
  "©": 80,
  "ª": 81,
  "«": 82,
  "¬": 83,
  "®": 84,
  "¯": 85,
  "°": 86,
  "±": 87,
  "²": 88,
  "³": 89,
  "´": 90,
  "µ": 91,
  "¶": 92,
  "·": 93,
  "¸": 94,
  "¹": 95,
  "º": 96,
  "»": 97,
  "¼": 98,
  "½": 99,
  "¾": 100,
  "¿": 101,
  "Â": 102,
  "Ã": 103,
  "Ä": 104,
  "Å": 105,
  "Ì": 106,
  "â": 107,
  "Ġ": 108,
  "Ģ": 109,
  "ģ": 110,
  "Ĥ": 111,
  "ĥ": 112,
  "Ħ": 113,
  "ħ": 114,
  "Ĩ": 115,
  "ĩ": 116,
  "Ī": 117,
  "ī": 118,
  "ĭ": 119,
  "į": 120,
  "ı": 121,
  "ĳ": 122,
  "ĵ": 123,
  "ķ": 124,
  "Ĺ": 125,
  "Ļ": 126,
  "Ľ": 127,
  "Ŀ": 128,
  "Ł": 129,
  "ł": 130,
  "Ń": 131,
  "Ġn": 132,
  "Ã¡": 133,
  "ov": 134,
  "Ġp": 135,
  "Ġne": 136,
  "ÃŃ": 137,
  "Ġs": 138,
  "Ã½": 139,
  "Ġa": 140,
  "Ġv": 141,
  "ej": 142,
  "ie": 143,
  "Ãº": 144,
  "Ã©": 145,
  "Ġz": 146,
  "Ġna": 147,
  "Å¡": 148,
  "ch": 149,
  "Å¥": 150,
  "en": 151,
  "Ġpo": 152,
  "Ġo": 153,
  "om": 154,
  "je": 155,
  "Ġpr": 156,
  "te": 157,
  "Äį": 158,
  "ia": 159,
  "Ġt": 160,
  "al": 161,
  "an": 162,
  "mi": 163,
  "ejÅ¡": 164,
  "me": 165,
  "Ġd": 166,
  "ho": 167,
  "sk": 168,
  "st": 169,
  "ou": 170,
  "ne": 171,
  "Ġpre": 172,
  "aj": 173,
  "Ġsa": 174,
  "Å¾": 175,
  "Ġza": 176,
  "Ġje": 177,
  "Ã½ch": 178,
  "Ġdo": 179,
  "uje": 180,
  "Ġnaj": 181,
  "Ġvy": 182,
  "Ġu": 183,
  "aÅ¥": 184,
  "il": 185,
  "ic": 186,
  "nÃ©": 187,
  "uj": 188,
  "to": 189,
  "Ġk": 190,
  "ro": 191,
  "no": 192,
  "Ä¾": 193,
  "Ġb": 194,
  "ky": 195,
  "le": 196,
  "in": 197,
  "ka": 198,
  "Ġktor": 199,
  "Ġnep": 200,
  "Ġm": 201,
  "ci": 202,
  "va": 203,
  "Ã½m": 204,
  "Ġod": 205,
  "roz": 206,
  "ick": 207,
  "Ġto": 208,
  "oval": 209,
  "ajÃº": 210,
  "Ġnez": 211,
  "kov": 212,
  "Å¾e": 213,
  "li": 214,
  "mu": 215,
  "nejÅ¡": 216,
  "re": 217,
  "nÃŃ": 218,
  "it": 219,
  "iÅ¥": 220,
  "ÃŃm": 221,
  "Ġak": 222,
  "Ġale": 223,
  "Ã©ho": 224,
  "ovan": 225,
  "sÅ¥": 226,
  "Ġroz": 227,
  "Ġaj": 228,
  "ujÃº": 229,
  "ÅĪ": 230,
  "la": 231,
  "ĠÃº": 232,
  "ĠnÃ¡": 233,
  "ĠÅ¾e": 234,
  "ĠvÃ½": 235,
  "nÃ½": 236,
  "av": 237,
  "teÄ¾": 238,
  "ko": 239,
  "na": 240,
  "Ġako": 241,
  "ĠÄį": 242,
  "Ã¡l": 243,
  "Ġpri": 244,
  "Ã¡r": 245,
  "ĠsÃº": 246,
  "ni": 247,
  "ku": 248,
  "ali": 249,
  "Ã¡v": 250,
  "ot": 251,
  "sti": 252,
  "ĠzÃ¡": 253,
  "Ġsi": 254,
  "Ġneo": 255,
  "lo": 256,
  "nej": 257,
  "Ġnev": 258,
  "Ġnie": 259,
  "at": 260,
  "Ã¡m": 261,
  "Ġtak": 262,
  "de": 263,
  "Ġob": 264,
  "Ġnepo": 265,
  "Ġin": 266,
  "ovaÅ¥": 267,
  "iz": 268,
  "Ġbo": 269,
  "nu": 270,
  "Ġneza": 271,
  "Ġpod": 272,
  "enie": 273,
  "nÃº": 274,
  "nÃ½ch": 275,
  "aÄį": 276,
  "iu": 277,
  "iÄį": 278,
  "Ġ1": 279,
  "Ġnevy": 280,
  "bo": 281,
  "Ġsom": 282,
  "po": 283,
  "do": 284,
  "Ġ(": 285,
  "ejÅ¡ie": 286,
  "nÃ¡": 287,
  "ny": 288,
  "ami": 289,
  "ala": 290,
  "och": 291,
  "nosÅ¥": 292,
  "Ã½mi": 293,
  "ok": 294,
  "Ã¡c": 295,
  "ejÅ¡ÃŃ": 296,
  "Ġalebo": 297,
  "ra": 298,
  "iv": 299,
  "ĠveÄ¾": 300,
  "ĠprÃŃ": 301,
  "Ã¡ch": 302,
  "ce": 303,
  "ri": 304,
  "Ġj": 305,
  "Ġ2": 306,
  "nÃ©ho": 307,
  "Ġpro": 308,
  "ili": 309,
  "alo": 310,
  "by": 311,
  "Ġsvoj": 312,
  "Ġzo": 313,
  "Ġpred": 314,
  "ovÃ©": 315,
  "ÃŃv": 316,
  "Ã¡ci": 317,
  "ĠmÃ´Å¾": 318,
  "ĠktorÃ©": 319,
  "oÄį": 320,
  "enia": 321,
  "ke": 322,
  "Ġrok": 323,
  "ĠÄįo": 324,
  "len": 325,
  "Ġi": 326,
  "ĠvÅ¡e": 327,
  "Ġnepre": 328,
  "Ġre": 329,
  "er": 330,
  "nosti": 331,
  "Äı": 332,
  "Ġbu": 333,
  "ila": 334,
  "Å¡ie": 335,
  "Ã¡va": 336,
  "Ġkon": 337,
  "ist": 338,
  "enÃ©": 339,
  "Ġby": 340,
  "Ġnedo": 341,
  "ent": 342,
  "ez": 343,
  "or": 344,
  "nom": 345,
  "ĠvÅ¡et": 346,
  "Ġke": 347,
  "Ġe": 348,
  "ĠuÅ¾": 349,
  "ajte": 350,
  "ensk": 351,
  "Ġslov": 352,
  "ĠmÃ´Å¾e": 353,
  "Ġspol": 354,
  "Ġdv": 355,
  "ajÃºc": 356,
  "Ġneroz": 357,
  "Ġc": 358,
  "Ġnena": 359,
  "vo": 360,
  "ĠmÃ¡": 361,
  "ik": 362,
  "Ġnes": 363,
  "ovali": 364,
  "Ġbez": 365,
  "ĠkeÄı": 366,
  "ilo": 367,
  "ujÃºc": 368,
  "Ġvo": 369,
  "ujeme": 370,
  "anie": 371,
  "nÃ½m": 372,
  "Ġsme": 373,
  "on": 374,
  "iteÄ¾": 375,
  "ujem": 376,
  "Ġlen": 377,
  "ateÄ¾": 378,
  "nejÅ¡ie": 379,
  "ĠktorÃ½": 380,
  "enÃŃ": 381,
  "el": 382,
  "nut": 383,
  "ovala": 384,
  "kom": 385,
  "Ġcel": 386,
  "am": 387,
  "ar": 388,
  "ajme": 389,
  "Ġbude": 390,
  "kou": 391,
  "nsk": 392,
  "00": 393,
  "Ġich": 394,
  "Ġ-": 395,
  "ve": 396,
  "Ġnov": 397,
  "ovej": 398,
  "nou": 399,
  "ujete": 400,
  "nejÅ¡ÃŃ": 401,
  "ac": 402,
  "ite": 403,
  "Ġneu": 404,
  "iac": 405,
  "Ġaby": 406,
  "nost": 407,
  "Ġtom": 408,
  "ujte": 409,
  "Ġtie": 410,
  "Ġneod": 411,
  "ĠmoÅ¾": 412,
  "Ã©mu": 413,
  "Å¡ÃŃ": 414,
  "ol": 415,
  "iach": 416,
  "ovÃ½": 417,
  "ovÃ½ch": 418,
  "Ġmi": 419,
  "ĠÄįi": 420,
  "ovalo": 421,
  "osÅ¥": 422,
  "enÃ½": 423,
  "ÃŃme": 424,
  "ovÃ¡": 425,
  "ĠÅ¾i": 426,
  "ÃŃte": 427,
  "ec": 428,
  "ovi": 429,
  "enÃ¡": 430,
  "Ġho": 431,
  "Ã³": 432,
  "ujme": 433,
  "Ġviac": 434,
  "Ġf": 435,
  "Ġpou": 436,
  "ujeÅ¡": 437,
  "Ġvz": 438,
  "Ġslovensk": 439,
  "ost": 440,
  "Ã¡cie": 441,
  "Ġmal": 442,
  "kami": 443,
  "ĠÄıal": 444,
  "Ä¾a": 445,
  "Ġh": 446,
  "Ã¡lne": 447,
  "nÃŃc": 448,
  "et": 449,
  "ĠkaÅ¾d": 450,
  "Ġprv": 451,
  "oj": 452,
  "ba": 453,
  "Ġten": 454,
  "Ġjeho": 455,
  "ĠnaÅ¡": 456,
  "ania": 457,
  "pr": 458,
  "Ã¡to": 459,
  "Ġsam": 460,
  "Ġprie": 461,
  "skej": 462,
  "Ġzn": 463,
  "Ã¡t": 464,
  "Ġde": 465,
  "ovÃ©ho": 466,
  "Ġso": 467,
  "ĠveÄ¾mi": 468,
  "Ġnepri": 469,
  "ich": 470,
  "Ġst": 471,
  "ĠpodÄ¾a": 472,
  "Ã´": 473,
  "Ġdobr": 474,
  "ĠspoloÄį": 475,
  "iansk": 476,
  "Ġpreto": 477,
  "pÃ´sob": 478,
  "Ġdom": 479,
  "ovanie": 480,
  "da": 481,
  "Ġsvet": 482,
  "ca": 483,
  "iny": 484,
  "iek": 485,
  "ame": 486,
  "Ġ3": 487,
  "ad": 488,
  "iev": 489,
  "Ġg": 490,
  "Ġjed": 491,
  "id": 492,
  "ĠktorÃ¡": 493,
  "iam": 494,
  "cov": 495,
  "Ġaut": 496,
  "01": 497,
  "ÅĪa": 498,
  "ÃŃÅ¡": 499,
  "Ġchc": 500,
  "ĠÅ¾iv": 501,
  "nÃ½mi": 502,
  "ovÃº": 503,
  "ĠaÅ¾": 504,
  "ovit": 505,
  "Ġosob": 506,
  "ĠÄįas": 507,
  "Ġbol": 508,
  "ĠbyÅ¥": 509,
  "ejÅ¡ÃŃch": 510,
  "ob": 511,
  "Ġma": 512,
  "sky": 513,
  "ĠvÅ¡ak": 514,
  "eb": 515,
  "liv": 516,
  "ĠvÃ¡m": 517,
  "ti": 518,
  "nic": 519,
  "Ġspo": 520,
  "Ã¡Äį": 521,
  "ejÅ¡ÃŃm": 522,
  "ejÅ¡ia": 523,
  "ĠprÃŃpad": 524,
  "ate": 525,
  "ÃŃn": 526,
  "ickÃ©": 527,
  "Ġrad": 528,
  "ĠprÃ¡v": 529,
  "ejÅ¡ou": 530,
  "ejÅ¡iu": 531,
  "ejÅ¡ej": 532,
  "ejÅ¡ieho": 533,
  "ejÅ¡ÃŃmi": 534,
  "ejÅ¡om": 535,
  "Ġstar": 536,
  "ejÅ¡iemu": 537,
  "Ġnad": 538,
  "Ġjej": 539,
  ").": 540,
  "Ã¡cia": 541,
  "Ġhlav": 542,
  "ovom": 543,
  "Ġmiest": 544,
  "stva": 545,
  "Ġniek": 546,
  "Ġpotreb": 547,
  "Ġtr": 548,
  "ovÃ½m": 549,
  "nych": 550,
  "Ġw": 551,
  "Ġved": 552,
  "Ġdruh": 553,
  "Ġmus": 554,
  "ant": 555,
  "Ġdvoj": 556,
  "Ġvlast": 557,
  "Ġte": 558,
  "im": 559,
  "ĠdÃ´": 560,
  "ĠeÅ¡te": 561,
  "ieÅ¥": 562,
  "Ġhr": 563,
  "Ã©r": 564,
  "osti": 565,
  "Ġroku": 566,
  "stvo": 567,
  "ĠÅ¾ivot": 568,
  "ovou": 569,
  "Ġjedn": 570,
  "kÃ¡": 571,
  "Ġtu": 572,
  "Ġani": 573,
  "Ġ.": 574,
  "ud": 575,
  "Ġvod": 576,
  "ĠsprÃ¡v": 577,
  "Ãºc": 578,
  "isk": 579,
  "Ġsta": 580,
  "za": 581,
  "Ġtento": 582,
  "Ã¤": 583,
  "Ġprav": 584,
  "Ġno": 585,
  "Ġste": 586,
  "Ġkde": 587,
  "Ġmest": 588,
  "Ġinform": 589,
  "anÃŃ": 590,
  "Ġko": 591,
  "ovÃ½mi": 592,
  "iar": 593,
  "Ġrod": 594,
  "Ġbolo": 595,
  "Äįo": 596,
  "ĠtÃ½m": 597,
  "um": 598,
  "Ġchce": 599,
  "ovsk": 600,
  "anÃ©": 601,
  "ĠmÃ´Å¾ete": 602,
  "ovÃŃ": 603,
  "Ġbola": 604,
  "Ġdet": 605,
  "ĠÄįast": 606,
  "ĠvaÅ¡": 607,
  "nÃºÅ¥": 608,
  "aliz": 609,
  "cie": 610,
  "Ġ4": 611,
  "nÃ©mu": 612,
  "si": 613,
  "nÃŃkov": 614,
  "bezpeÄį": 615,
  "Ġnej": 616,
  "Ġspolu": 617,
  "ovÃ©mu": 618,
  "Ġcest": 619,
  "stv": 620,
  "ske": 621,
  "Ġdlh": 622,
  "ak": 623,
  "enÃŃm": 624,
  "Ãºr": 625,
  "kÃ½ch": 626,
  "bu": 627,
  "istick": 628,
  "Ġ201": 629,
  "Ġ\"": 630,
  "Ġr": 631,
  "Ã¡s": 632,
  "ien": 633,
  "Ġmedz": 634,
  "Ã¡ciu": 635,
  "Å¾ÃŃv": 636,
  "ĠtieÅ¾": 637,
  "ĠÅ¡kol": 638,
  "ut": 639,
  "Ġrov": 640,
  "ĠÄ¾ud": 641,
  "ĠzÃ¡klad": 642,
  "Ġsamo": 643,
  "eÄį": 644,
  "Ġakt": 645,
  "Ġprac": 646,
  "enÃ½ch": 647,
  "znam": 648,
  "Ġ5": 649,
  "kÃ¡r": 650,
  "ĠÄ¾": 651,
  "ĠprÃ¡c": 652,
  "Ġme": 653,
  "aÅ¡": 654,
  "Ġboli": 655,
  "ul": 656,
  "Ġmedzi": 657,
  "Ġfot": 658,
  "ina": 659,
  "Ġmen": 660,
  "ovac": 661,
  "Ġcen": 662,
  "Ġpot": 663,
  "Ã¡tor": 664,
  "ĠnÃ¡s": 665,
  "kÃ¡m": 666,
  "Ġrozhod": 667,
  "atÃŃv": 668,
  "ime": 669,
  "ĠspÃ´sob": 670,
  "Ã¡me": 671,
  "Ãºv": 672,
  "ing": 673,
  "Ġauto": 674,
  "Ġnapr": 675,
  "kÃ¡ch": 676,
  "nite": 677,
  "Ġsp": 678,
  "nÃŃk": 679,
  "Ġelektr": 680,
  "Ġtej": 681,
  "ĠpoÄįas": 682,
  "ĠvÃ¡s": 683,
  "Ġkval": 684,
  "ĠktorÃŃ": 685,
  "Ġce": 686,
  "Ġneob": 687,
  "Ġnem": 688,
  "eÅĪ": 689,
  "Ġja": 690,
  "skom": 691,
  "Ġju": 692,
  "),": 693,
  "Ġnajne": 694,
  "kÃ©": 695,
  "Ġtoho": 696,
  "Ġpol": 697,
  "ovateÄ¾": 698,
  "ĠstÃ¡": 699,
  "ovania": 700,
  "Ã¡vajÃº": 701,
  "ĠvÅ¡etky": 702,
  "skÃ©": 703,
  "skÃ©ho": 704,
  "Å¾it": 705,
  "em": 706,
  "Å¡ÃŃch": 707,
  "ickÃ½ch": 708,
  "Ġkraj": 709,
  "oÄ¾ko": 710,
  "Ġzdrav": 711,
  "Ġ19": 712,
  "ĠstrÃ¡n": 713,
  "skutoÄį": 714,
  "Ġkom": 715,
  "ĠrÃ´zn": 716,
  "ĠvÃ½rob": 717,
  "nostÃŃ": 718,
  "ĠurÄį": 719,
  "ĠmajÃº": 720,
  "Ã¡lny": 721,
  "Ã¡te": 722,
  "Ġl": 723,
  "skÃ½ch": 724,
  "ovanÃ©": 725,
  "ĠÅ¡": 726,
  "organiz": 727,
  "Ã¡cii": 728,
  "Å¾ÃŃva": 729,
  "skÃ½": 730,
  "ickej": 731,
  "kej": 732,
  "nÃŃct": 733,
  "ĠponÃºk": 734,
  "Ġpotom": 735,
  "ĠsluÅ¾": 736,
  "ĠvÅ¡etko": 737,
  "ĠrÃ½chl": 738,
  "tu": 739,
  "koch": 740,
  "pre": 741,
  "ujÃºci": 742,
  "ii": 743,
  "olog": 744,
  "ickÃ½": 745,
  "is": 746,
  "ĠsystÃ©m": 747,
  "Ġzmen": 748,
  "Ġkvalit": 749,
  "ĠprÃŃpade": 750,
  "ĠzÃ¡kon": 751,
  "Ġvys": 752,
  "ĠproblÃ©m": 753,
  "Ġan": 754,
  "Ġtam": 755,
  "Ġvyu": 756,
  "ĠÅ¾": 757,
  "skÃ¡": 758,
  "eli": 759,
  "Ġform": 760,
  "ĠnÃ¡m": 761,
  "tr": 762,
  "nosÅ¥ou": 763,
  "ovy": 764,
  "Ġmoh": 765,
  "ĠtÃ½ch": 766,
  "nejÅ¡ÃŃch": 767,
  "Ġmnoh": 768,
  "Ġ,": 769,
  "Ġhor": 770,
  "olÃ³g": 771,
  "Ġsvoje": 772,
  "Ġmu": 773,
  "nete": 774,
  "Ġtejto": 775,
  "Ġnezo": 776,
  "ikov": 777,
  "Ġfoto": 778,
  "Ġdosta": 779,
  "Ġpredstav": 780,
  "ych": 781,
  "Ã¡vaÅ¥": 782,
  "chÃ¡dza": 783,
  "Ġstran": 784,
  "Ġokol": 785,
  "Ġpoved": 786,
  "ĠkÃºp": 787,
  "poved": 788,
  "neho": 789,
  "Ġok": 790,
  "nat": 791,
  "Ġplat": 792,
  "Ġniektor": 793,
  "Ġtomu": 794,
  "Ġposkyt": 795,
  "if": 796,
  "kÃ½m": 797,
  "udÃŃ": 798,
  "Ġjednoduch": 799,
  "Ġvec": 800,
  "Ġtechn": 801,
  "nejÅ¡ia": 802,
  "Ġrob": 803,
  "kÃ½": 804,
  "Ġrokov": 805,
  "Ġmoj": 806,
  "ĠÄ¾udÃŃ": 807,
  "Ġse": 808,
  "vÃ¤ÄįÅ¡": 809,
  "nejÅ¡ÃŃm": 810,
  "ĠzÃŃsk": 811,
  "Ġsil": 812,
  "Äįe": 813,
  "ĠÅ¡tÃ¡t": 814,
  "Ġpln": 815,
  "cia": 816,
  "Ġtel": 817,
  "Ġorganiz": 818,
  "stav": 819,
  "Ġobsah": 820,
  "Ġprostred": 821,
  "kach": 822,
  "Ġcez": 823,
  "nejÅ¡iu": 824,
  "sa": 825,
  "Ġiba": 826,
  "anÃ½": 827,
  "iÅ¡": 828,
  "ĠnieÄįo": 829,
  "Ġnepod": 830,
  "Ġvid": 831,
  "nejÅ¡ieho": 832,
  "nejÅ¡ou": 833,
  "nejÅ¡ej": 834,
  "ĠvÄıak": 835,
  "iÃ¡l": 836,
  "nejÅ¡ÃŃmi": 837,
  "nejÅ¡om": 838,
  "Ġur": 839,
  "Ġdokon": 840,
  "nejÅ¡iemu": 841,
  "ciu": 842,
  "hodnot": 843,
  "Ġboh": 844,
  "ĠvÄıaka": 845,
  "Ġbud": 846,
  "icky": 847,
  "Ġ:": 848,
  "ovanÃŃ": 849,
  "Ġlet": 850,
  "Ã¡Å¡": 851,
  "ska": 852,
  "Ġteda": 853,
  "skou": 854,
  "Ġ6": 855,
  "ela": 856,
  "Ġstred": 857,
  "Ġobchod": 858,
  "ĠpretoÅ¾e": 859,
  "ĠkaÅ¾dÃ½": 860,
  "ĠbudÃº": 861,
  "Ã¡n": 862,
  "Ġhovor": 863,
  "stat": 864,
  "ĠmoÅ¾no": 865,
  "dz": 866,
  "ion": 867,
  "Ġpodob": 868,
  "vom": 869,
  "ĠmÃ´Å¾u": 870,
  "ĠmaÅ¥": 871,
  "ice": 872,
  "neme": 873,
  "Ġmali": 874,
  "ĠprÃ¡ve": 875,
  "Ġdod": 876,
  "Ġtieto": 877,
  "Ġjednot": 878,
  "vÅ¾dy": 879,
  "es": 880,
  "Ã¡ciÃŃ": 881,
  "Ġtvor": 882,
  "Ġim": 883,
  "ÃŃk": 884,
  "ÃŃklad": 885,
  "ity": 886,
  "ika": 887,
  "ĠeurÃ³p": 888,
  "ĠzaÄįa": 889,
  "Ġid": 890,
  "Ġproduk": 891,
  "iÃŃ": 892,
  "koÄ¾": 893,
  "nÃŃÄį": 894,
  "Ġnejak": 895,
  "vek": 896,
  "nem": 897,
  "ickÃ©ho": 898,
  "niÄį": 899,
  "ĠnaprÃŃklad": 900,
  "enej": 901,
  "nime": 902,
  "ickÃ¡": 903,
  "spo": 904,
  "ĠdeÅĪ": 905,
  "ovanÃ½": 906,
  "koÄ¾vek": 907,
  "daj": 908,
  "Ġpomoc": 909,
  "sku": 910,
  "ĠniÄį": 911,
  "lepÅ¡ie": 912,
  "ĠÄįlovek": 913,
  "Ġzariad": 914,
  "ine": 915,
  "inu": 916,
  "lia": 917,
  "Ġprogram": 918,
  "Ġpriestor": 919,
  "ĠvÅ¡etkÃ½ch": 920,
  "ovo": 921,
  "ved": 922,
  "Ġuved": 923,
  "ĠvÅ¾dy": 924,
  "Ġrovna": 925,
  "anÃ¡": 926,
  "Ġdnes": 927,
  "Ġvhod": 928,
  "Ġriad": 929,
  "znaÄį": 930,
  "byt": 931,
  "Ġpodpor": 932,
  "ĠrieÅ¡": 933,
  "ieva": 934,
  "Ġnajm": 935,
  "hto": 936,
  "ru": 937,
  "rem": 938,
  "iem": 939,
  "Ġnik": 940,
  "Ġtohto": 941,
  "Ġprojekt": 942,
  "livo": 943,
  "jde": 944,
  "Ġtovar": 945,
  "ĠkrÃ¡s": 946,
  "Ġjeden": 947,
  "Ġ8": 948,
  "ĠveÄ¾a": 949,
  "leÅ¾it": 950,
  "ĠÄįin": 951,
  "Ġtoto": 952,
  "Ġnebo": 953,
  "com": 954,
  "anÃŃm": 955,
  "ĠÄįlen": 956,
  "iky": 957,
  "Ġodbor": 958,
  "Ġvie": 959,
  "ĠmoÅ¾nÃ©": 960,
  "Ġpatr": 961,
  "Ġspoj": 962,
  "cii": 963,
  "ĠskutoÄį": 964,
  "Ġteraz": 965,
  "Ġtyp": 966,
  "neÅ¡": 967,
  "ier": 968,
  "Ġpriprav": 969,
  "Ġmysl": 970,
  "Ġvysok": 971,
  "Ġokrem": 972,
  "ĠtÃº": 973,
  "Ġsu": 974,
  "Ġbi": 975,
  "ĠÅ¾en": 976,
  "Ġkedy": 977,
  "ĠÅ¥aÅ¾": 978,
  "ÃŃvne": 979,
  "ĠÅ¡peci": 980,
  "Ġodpo": 981,
  "Ġasi": 982,
  "Ġide": 983,
  "ach": 984,
  "Ġpodmien": 985,
  "mo": 986,
  "iel": 987,
  "ĠhÄ¾ad": 988,
  "Ġbratislav": 989,
  "Ġoblast": 990,
  "kr": 991,
  "ĠÃºpln": 992,
  "enÃº": 993,
  "Ġfarb": 994,
  "Ġpracov": 995,
  "lepÅ¡": 996,
  "Ġposled": 997,
  "ito": 998,
  "Ã³n": 999,
  "Ġtepl": 1000,
  "us": 1001,
  "Ġ7": 1002,
  "Ġtele": 1003,
  "Ġskup": 1004,
  "ĠstÃ¡le": 1005,
  "ovaÄį": 1006,
  "Ġch": 1007,
  "Ġmater": 1008,
  "vy": 1009,
  "ĠmnoÅ¾": 1010,
  "ĠktorÃ½ch": 1011,
  "skÃº": 1012,
  "Ġjedin": 1013,
  "Ġmil": 1014,
  "Ġist": 1015,
  "Ġku": 1016,
  "ran": 1017,
  "Ġpriam": 1018,
  "Ġochran": 1019,
  "Ġtomto": 1020,
  "ieb": 1021,
  "Ġnich": 1022,
  "as": 1023,
  "oc": 1024,
  "ĠnajmÃ¤": 1025,
  "Ġvznik": 1026,
  "ĠktorÃº": 1027,
  "iad": 1028,
  "ĠuÄį": 1029,
  "ĠprÃŃrod": 1030,
  "nÃŃka": 1031,
  "Ġeur": 1032,
  "Ã¡Å¾": 1033,
  "roveÅĪ": 1034,
  "du": 1035,
  "ĠÄ¾ah": 1036,
  "ujÃºce": 1037,
  "Ġdeti": 1038,
  "Ġdob": 1039,
  "Ġper": 1040,
  "ĠtakÅ¾e": 1041,
  "Ġproti": 1042,
  "Ġpostup": 1043,
  "ĠvÃ½sled": 1044,
  "enÃ©ho": 1045,
  "ĠvoÄ¾": 1046,
  "ĠskÃºs": 1047,
  "Ġmlad": 1048,
  "Ġpredaj": 1049,
  "Ġverej": 1050,
  "Ġcentr": 1051,
  "osÅ¥ou": 1052,
  "Ġ10": 1053,
  "Ġvytvor": 1054,
  "be": 1055,
  "lÃ¡": 1056,
  "od": 1057,
  "Ġleb": 1058,
  "kam": 1059,
  "ĠÃºÄįin": 1060,
  "voj": 1061,
  "konÄį": 1062,
  "Ġodo": 1063,
  "ĠÄįlÃ¡n": 1064,
  "ÃŃr": 1065,
  "iav": 1066,
  "Ġfunk": 1067,
  "ane": 1068,
  "ĠpÃ¡r": 1069,
  "Ġex": 1070,
  "ĠzaujÃŃm": 1071,
  "Ġknih": 1072,
  "ĠmuÅ¾": 1073,
  "Ġ200": 1074,
  "Ġstret": 1075,
  "ĠsÃºÄįas": 1076,
  "ĠmÃ¡m": 1077,
  "ĠmateriÃ¡l": 1078,
  "Å¡ej": 1079,
  "ĠÄįist": 1080,
  "Ġktorej": 1081,
  "ĠznaÄį": 1082,
  "ickÃº": 1083,
  "Ġdlho": 1084,
  "ĠnÃ¡rod": 1085,
  "ÅĪuje": 1086,
  "ĠtÃ¡to": 1087,
  "Ġhodnot": 1088,
  "Ġbod": 1089,
  "Ġlebo": 1090,
  "ĠÄıalÅ¡ie": 1091,
  "ostÃŃ": 1092,
  "Ġzamest": 1093,
  "treba": 1094,
  "eniu": 1095,
  "nym": 1096,
  "ĠspoloÄįnosti": 1097,
  "vie": 1098,
  "Ġpovin": 1099,
  "pozÃŃ": 1100,
  "ĠsÃºÅ¥aÅ¾": 1101,
  "Ġbiel": 1102,
  "Ġmesiac": 1103,
  "ĠrÃ¡m": 1104,
  "Ġsk": 1105,
  "Ġzmluv": 1106,
  "ĠveÄ¾ko": 1107,
  "Ġruk": 1108,
  "Ġmo": 1109,
  "ĠÅ¡port": 1110,
  "ĠmoÅ¾nosÅ¥": 1111,
  "ĠzabezpeÄį": 1112,
  "skÃ½m": 1113,
  "sko": 1114,
  "alist": 1115,
  "ĠpÃŃs": 1116,
  "ĠÄ¾udia": 1117,
  "ĠpÃ´sob": 1118,
  "tie": 1119,
  "Ã³z": 1120,
  "ĠnÃ¡Å¡": 1121,
  "ĠdÃ´leÅ¾it": 1122,
  "Ġdiv": 1123,
  "nostiach": 1124,
  "ĠnÃ¡jde": 1125,
  "ĠvyÅ¡": 1126,
  "ĠroÄį": 1127,
  "ter": 1128,
  "io": 1129,
  "ĠvÃ¤ÄįÅ¡": 1130,
  "Ġvoj": 1131,
  "ĠcieÄ¾": 1132,
  "zrejme": 1133,
  "ajÃºci": 1134,
  "ĠÅĪ": 1135,
  "ment": 1136,
  "ĠzÃ¡kaz": 1137,
  "eme": 1138,
  "ĠkrÃ¡t": 1139,
  "Ġzl": 1140,
  "ĠÄıalej": 1141,
  "Ġsvoju": 1142,
  "Ġhotel": 1143,
  "ieme": 1144,
  "Ġdis": 1145,
  "ĠvÃ½kon": 1146,
  "Ġkto": 1147,
  "ickÃ½m": 1148,
  "Ġpozn": 1149,
  "ĠurÄįite": 1150,
  "ÃŃÄį": 1151,
  "Ġdobre": 1152,
  "nosÅ¥ami": 1153,
  "Ġx": 1154,
  "Ġseb": 1155,
  "ĠÅ¾iad": 1156,
  "Ġ9": 1157,
  "Ġtrh": 1158,
  "ĠniekoÄ¾ko": 1159,
  "Ġobdob": 1160,
  "Ġnielen": 1161,
  "ĠÄįasti": 1162,
  "ĠvÃ¡Å¡": 1163,
  "Ġpria": 1164,
  "Ġkult": 1165,
  "Ġdrev": 1166,
  "ĠpouÅ¾it": 1167,
  "Ġfilm": 1168,
  "Ġenerg": 1169,
  "Ġmod": 1170,
  "Ġotvor": 1171,
  "nÃºc": 1172,
  "del": 1173,
  "nutie": 1174,
  "kÃ©ho": 1175,
  "Ãºva": 1176,
  "Ġoblasti": 1177,
  "Ġstav": 1178,
  "Ġver": 1179,
  "nuÅ¥": 1180,
  "rov": 1181,
  "ĠdÃ´vod": 1182,
  "lu": 1183,
  "inou": 1184,
  "Ġhodin": 1185,
  "Å¾iÅ¥": 1186,
  "Ġle": 1187,
  "Ġkol": 1188,
  "ete": 1189,
  "nostiam": 1190,
  "kovit": 1191,
  "ĠmÃ¡te": 1192,
  "tov": 1193,
  "rovn": 1194,
  "Ã¡vame": 1195,
  "ĠinÃ©": 1196,
  "Ġsoci": 1197,
  "ĠÃºplne": 1198,
  "ĠbezpeÄį": 1199,
  "ĠtÃ½chto": 1200,
  "anÃ½ch": 1201,
  "ĠinformÃ¡cie": 1202,
  "tom": 1203,
  "Ġdiel": 1204,
  "niÅ¥": 1205,
  "mer": 1206,
  "ĠpouÅ¾ÃŃv": 1207,
  "Ġmat": 1208,
  "my": 1209,
  "ĠzÃ¡roveÅĪ": 1210,
  "Ġon": 1211,
  "ÃŃch": 1212,
  "ĠprevÃ¡dz": 1213,
  "ĠotÃ¡z": 1214,
  "sp": 1215,
  "ieÅ¡": 1216,
  "iat": 1217,
  "Ġnaozaj": 1218,
  "Ġdar": 1219,
  "ĠprvÃ½": 1220,
  "Ġchod": 1221,
  "imi": 1222,
  "ĠzaÄįia": 1223,
  "Ã¡lnej": 1224,
  "Ġelektro": 1225,
  "ĠdieÅ¥": 1226,
  "Ġurob": 1227,
  "Ġpodnik": 1228,
  "Ġpa": 1229,
  "Ġvykon": 1230,
  "Ġslovensku": 1231,
  "ĠÃºspe": 1232,
  "Ġzem": 1233,
  "Ġboj": 1234,
  "Ġmala": 1235,
  "Ġobjedn": 1236,
  "ene": 1237,
  "kÃº": 1238,
  "iete": 1239,
  "Ġrast": 1240,
  "bil": 1241,
  "ÃŃc": 1242,
  "ĠbeÅ¾": 1243,
  "ÃŃkov": 1244,
  "vateÄ¾": 1245,
  "Ã¡vali": 1246,
  "Ġsmer": 1247,
  "skÃ½mi": 1248,
  "Ġreal": 1249,
  "Ġweb": 1250,
  "ĠÃºdaj": 1251,
  "ĠÄįasÅ¥": 1252,
  "Ġjedno": 1253,
  "Ġmier": 1254,
  "ovanÃ¡": 1255,
  "svedÄį": 1256,
  "skych": 1257,
  "Ġpozor": 1258,
  "Ġpolit": 1259,
  "Ġstan": 1260,
  "ĠtÃ½": 1261,
  "ĠvzÅ¥ah": 1262,
  "nÃŃci": 1263,
  "skÃŃ": 1264,
  "pÃ´vod": 1265,
  "Ġmiesto": 1266,
  "Ã¡lnych": 1267,
  "ĠÄįasto": 1268,
  "Ã¡ciou": 1269,
  "Ġ15": 1270,
  "Ġmin": 1271,
  "Ġtreba": 1272,
  "Ã¡vam": 1273,
  "ĠmÅĪa": 1274,
  "Ġdopln": 1275,
  "Ã¡val": 1276,
  "Ġzne": 1277,
  "Ġnajpo": 1278,
  "Ġinternet": 1279,
  "Ġponuk": 1280,
  "Ġpresn": 1281,
  "ĠnovÃ©": 1282,
  "Ġpoz": 1283,
  "Ġ20": 1284,
  "ĠpotrebnÃ©": 1285,
  "enÃ½m": 1286,
  "skeho": 1287,
  "Ġobc": 1288,
  "ĠplÃ¡n": 1289,
  "ĠmusÃŃ": 1290,
  "skÃ©mu": 1291,
  "stoj": 1292,
  "Ġvoz": 1293,
  "ĠspoloÄįnosÅ¥": 1294,
  "Ġsitu": 1295,
  "iku": 1296,
  "Ġzdravot": 1297,
  "ifik": 1298,
  "Ã¤Äį": 1299,
  "ĠpÃ´vod": 1300,
  "ĠprÃŃjem": 1301,
  "isti": 1302,
  "Ġpart": 1303,
  "un": 1304,
  "oroÄį": 1305,
  "ss": 1306,
  "Ġhud": 1307,
  "ĠzaujÃŃmav": 1308,
  "Ġnevie": 1309,
  "Ġostat": 1310,
  "Ġnajz": 1311,
  "ty": 1312,
  "Ġmy": 1313,
  "ĠÂ": 1314,
  "ickom": 1315,
  "Å¡ia": 1316,
  "vÃ½raz": 1317,
  "Ġsvojej": 1318,
  "ĠpÃ¡n": 1319,
  "Ġzamestn": 1320,
  "ĠprÃŃprav": 1321,
  "ij": 1322,
  "Ġsvojich": 1323,
  "Ġaktiv": 1324,
  "Å¡iel": 1325,
  "Ġjednotliv": 1326,
  "ĠvÃ¤Äį": 1327,
  "kovÃ©": 1328,
  "iou": 1329,
  "uÄį": 1330,
  "ĠbÃ½": 1331,
  "ĠprÃ¡ce": 1332,
  "ĠvÃ½Å¡": 1333,
  "itu": 1334,
  "ĠÄįes": 1335,
  "Ġhlavne": 1336,
  "ica": 1337,
  "kovÃ¡": 1338,
  "stve": 1339,
  "eÅ¡": 1340,
  "ĠpohÄ¾ad": 1341,
  "Ġsrd": 1342,
  "iaci": 1343,
  "hraniÄį": 1344,
  "ĠÄįerv": 1345,
  "Ġla": 1346,
  "ĠzloÅ¾": 1347,
  "vÃ½": 1348,
  "ici": 1349,
  "lekÃ¡r": 1350,
  "ava": 1351,
  "Ġnebu": 1352,
  "ĠÃºrad": 1353,
  "ĠsnaÅ¾": 1354,
  "ĠpreÄįo": 1355,
  "Ġven": 1356,
  "Ġvol": 1357,
  "Ġvyd": 1358,
  "ĠpouÅ¾ÃŃva": 1359,
  "ĠtakÃ©": 1360,
  "Ġkup": 1361,
  "ĠtÃºto": 1362,
  "Ġfirm": 1363,
  "201": 1364,
  "Ã¡vajte": 1365,
  "ĠumoÅ¾": 1366,
  "Ã¡vala": 1367,
  "val": 1368,
  "Ġnebude": 1369,
  "jsÅ¥": 1370,
  "Ġaplik": 1371,
  "dpoved": 1372,
  "Ġli": 1373,
  "Ġsklad": 1374,
  "Ġslovenskej": 1375,
  "Ġtrv": 1376,
  "Ġpozr": 1377,
  "iami": 1378,
  "Ġschop": 1379,
  "boj": 1380,
  "Ã¡vajÃºc": 1381,
  "vajÃº": 1382,
  "Ġvybav": 1383,
  "ĠÄįÃŃsl": 1384,
  "ĠmÃ¡me": 1385,
  "Ġvybr": 1386,
  "ĠtlaÄį": 1387,
  "ĠÅ¡tud": 1388,
  "Ġskv": 1389,
  "Ġpostav": 1390,
  "inÃ¡r": 1391,
  "ĠrÃ¡mci": 1392,
  "ument": 1393,
  "ĠvÃ½ber": 1394,
  "rac": 1395,
  "Å¡iu": 1396,
  "ograf": 1397,
  "bra": 1398,
  "Ġsvojho": 1399,
  "ir": 1400,
  "oko": 1401,
  "kiaÄ¾": 1402,
  "Ġpriamo": 1403,
  "nÃŃkom": 1404,
  "Ġanti": 1405,
  "Ã¡vate": 1406,
  "ym": 1407,
  "ĠlekÃ¡r": 1408,
  "Ġpan": 1409,
  "str": 1410,
  "ĠvaÅ¡e": 1411,
  "elo": 1412,
  "Å¾iv": 1413,
  "iÄįky": 1414,
  "Ġzel": 1415,
  "osÅ¥ami": 1416,
  "ĠsÃºÄįasÅ¥": 1417,
  "kon": 1418,
  "inÃ¡": 1419,
  "ur": 1420,
  "Ġjas": 1421,
  "Ġdol": 1422,
  "Ġdve": 1423,
  "ĠktorÃ©ho": 1424,
  "ĠminÃºt": 1425,
  "Ġznam": 1426,
  "Ġ12": 1427,
  "Ġmodel": 1428,
  "ĠcelÃ½": 1429,
  "ĠpoÅ¾iad": 1430,
  "ickou": 1431,
  "roch": 1432,
  "Ġsamozrejme": 1433,
  "Ġexist": 1434,
  "Ġmesta": 1435,
  "ma": 1436,
  "Ġrepublik": 1437,
  "Ġdoprav": 1438,
  "nice": 1439,
  "ĠkeÄıÅ¾e": 1440,
  "losti": 1441,
  "Ġprid": 1442,
  "ostiach": 1443,
  "Ġprot": 1444,
  "ta": 1445,
  "ĠvlÃ¡d": 1446,
  "Ġum": 1447,
  "ĠÅ¾ivota": 1448,
  "Ġpekn": 1449,
  "ĠnÃ¡sled": 1450,
  "ĠÃºloh": 1451,
  "ĠnÃ¡jdete": 1452,
  "ĠnachÃ¡dza": 1453,
  "hospodÃ¡r": 1454,
  "Ġproces": 1455,
  "Ġned": 1456,
  "Ã¡valo": 1457,
  "Ġdokonca": 1458,
  "Ã¡nsk": 1459,
  "ĠnaÅ¡e": 1460,
  "Ġvzdel": 1461,
  "Ġokolo": 1462,
  "ĠdÅĪa": 1463,
  "Ġzist": 1464,
  "Ġ18": 1465,
  "ĠnaÅ¡ej": 1466,
  "Ġpohyb": 1467,
  "ickÃ½mi": 1468,
  "oce": 1469,
  "tedy": 1470,
  "ĠlÃ¡sk": 1471,
  "kovej": 1472,
  "Ġsr": 1473,
  "nÃŃctvom": 1474,
  "ĠÄįÃŃt": 1475,
  "ĠprÃŃstup": 1476,
  "ĠrÃ´znych": 1477,
  "ĠmnoÅ¾stvo": 1478,
  "Ġbudete": 1479,
  "izaÄį": 1480,
  "iec": 1481,
  "nenie": 1482,
  "enci": 1483,
  "Ġseba": 1484,
  "Ã¡vaj": 1485,
  "tv": 1486,
  "stvom": 1487,
  "tok": 1488,
  "Ġsed": 1489,
  "Ġpos": 1490,
  "Ġcelo": 1491,
  "Ġstarost": 1492,
  "ovanÃ½ch": 1493,
  "leÅ¾ito": 1494,
  "Ġaktu": 1495,
  "ĠÄįak": 1496,
  "kovÃ½": 1497,
  "Ã¡vajme": 1498,
  "Å¾d": 1499,
  "cu": 1500,
  "ĠnaÅ¡ich": 1501,
  "ĠodporÃºÄį": 1502,
  "ĠnÃ¡vÅ¡tev": 1503,
  "ĠzÃ¡klade": 1504,
  "Ġfakt": 1505,
  "Ġtext": 1506,
  "ajÃºce": 1507,
  "ostiam": 1508,
  "Ã¡lneho": 1509,
  "ĠlieÄį": 1510,
  "inÃ¡ch": 1511,
  "ĠfinanÄį": 1512,
  "Ġveci": 1513,
  "ĠdÃ¡": 1514,
  "Ã¡vaÅ¡": 1515,
  "ĠÅ¡tv": 1516,
  "Ġvlas": 1517,
  "ĠobÄį": 1518,
  "Ġro": 1519,
  "Ġkontrol": 1520,
  "ÃŃt": 1521,
  "Ġsm": 1522,
  "Ġtakmer": 1523,
  "plyv": 1524,
  "Ġzodpoved": 1525,
  "ĠkultÃºr": 1526,
  "Ġizb": 1527,
  "kav": 1528,
  "Ġautor": 1529,
  "ĠzÃ¡pas": 1530,
  "tor": 1531,
  "Ġkontakt": 1532,
  "Ġsprav": 1533,
  "ĠskÃºsen": 1534,
  "ĠsluÅ¾by": 1535,
  "Ġpohod": 1536,
  "Ġraz": 1537,
  "ieho": 1538,
  "ĠinÃ½ch": 1539,
  "Ġmot": 1540,
  "anov": 1541,
  "Ġminist": 1542,
  "Ġzdroj": 1543,
  "ĠzvÃ½Å¡": 1544,
  "ĠtrÃ©n": 1545,
  "Ġmor": 1546,
  "ĠdnÃŃ": 1547,
  "enom": 1548,
  "Å¡t": 1549,
  "Ġmohli": 1550,
  "enÄį": 1551,
  "ĠrÃ´zne": 1552,
  "Ġtret": 1553,
  "Ã¡k": 1554,
  "ĠvÃ½bor": 1555,
  "ĠprÃŃsluÅ¡": 1556,
  "ita": 1557,
  "Ġmodern": 1558,
  "Ġtvrd": 1559,
  "Ġprofes": 1560,
  "Ġpocit": 1561,
  "ĠÄįiern": 1562,
  "ĠskÃ´r": 1563,
  "ĠsÃºd": 1564,
  "Ġkrv": 1565,
  "Ġsamot": 1566,
  "tiaÄ¾": 1567,
  "ĠÅ¡ir": 1568,
  "ovanÃŃm": 1569,
  "Ġpovy": 1570,
  "Ġnikdy": 1571,
  "Ġjazyk": 1572,
  "000": 1573,
  "Äįom": 1574,
  "ĠvÃ½raz": 1575,
  "ĠnÃ¡vrh": 1576,
  "ĠÅ¡tÃ½l": 1577,
  "Ġobjav": 1578,
  "Ġnos": 1579,
  "Ġzlat": 1580,
  "ĠznÃ¡m": 1581,
  "ĠtÃ½Å¾d": 1582,
  "ĠmÃ´j": 1583,
  "ĠlepÅ¡ie": 1584,
  "ĠrodiÄį": 1585,
  "ÃŃsÅ¥": 1586,
  "Ġchcete": 1587,
  "ĠzaÄįiat": 1588,
  "Ġab": 1589,
  "Ġporad": 1590,
  "Ġklas": 1591,
  "kar": 1592,
  "Ġtrad": 1593,
  "Ġnepovy": 1594,
  "Ġpomocou": 1595,
  "ĠnemÃ´Å¾": 1596,
  "Ġnemus": 1597,
  "Ġnede": 1598,
  "ĠponÃºka": 1599,
  "Ġktorom": 1600,
  "ovia": 1601,
  "Ġbal": 1602,
  "zd": 1603,
  "ĠrÃ½chlo": 1604,
  "Ġrovnako": 1605,
  "ĠvÃ½znam": 1606,
  "bÃŃj": 1607,
  "ĠpÃ´": 1608,
  "Ġnech": 1609,
  "ĠopÃ¤Å¥": 1610,
  "ĠdokÃ¡Å¾": 1611,
  "ĠvÃ´bec": 1612,
  "ĠzÃº": 1613,
  "ĠpokiaÄ¾": 1614,
  "Ã¡lna": 1615,
  "ĠsÃºÄįasÅ¥ou": 1616,
  "Ġsvete": 1617,
  "Ġdva": 1618,
  "Ġvon": 1619,
  "Ġrozo": 1620,
  "ĠzÃ¡kona": 1621,
  "ĠÄįase": 1622,
  "kaj": 1623,
  "izmu": 1624,
  "Ġdosiah": 1625,
  "ĠkoÅ¾": 1626,
  "ĠhrÃ¡Äį": 1627,
  "nymi": 1628,
  "ĠÅ¡tÃºd": 1629,
  "ova": 1630,
  "Ġeko": 1631,
  "Ġnapriek": 1632,
  "tiÅ¾": 1633,
  "Ġtroch": 1634,
  "ĠnajlepÅ¡ie": 1635,
  "Ġlist": 1636,
  "Ġreklam": 1637,
  "ĠktorÃ½m": 1638,
  "ĠneÅ¾": 1639,
  "Ġgener": 1640,
  "ĠprostrednÃŃctvom": 1641,
  "Ġaspo": 1642,
  "Ġden": 1643,
  "ĠtotiÅ¾": 1644,
  "ĠsÃºvis": 1645,
  "izm": 1646,
  "stiev": 1647,
  "stÃ¡va": 1648,
  "ĠniektorÃ©": 1649,
  "ĠlÃ¡t": 1650,
  "Ġfyz": 1651,
  "sl": 1652,
  "Ġporiad": 1653,
  "ĠvÅ¡etci": 1654,
  "Ġvyrob": 1655,
  "ĠaspoÅĪ": 1656,
  "Ġefekt": 1657,
  "ĠÃºÄįel": 1658,
  "vaÅ¥": 1659,
  "podob": 1660,
  "ĠtÃŃm": 1661,
  "ĠvÃ½hod": 1662,
  "Ġprakt": 1663,
  "Ġdvoch": 1664,
  "Ġnepred": 1665,
  "Ġkombin": 1666,
  "ĠvrÃ¡t": 1667,
  "Ġpros": 1668,
  "Ġsln": 1669,
  "Ġ30": 1670,
  "ĠÅ¡tvor": 1671,
  "Ä¾av": 1672,
  "ĠdomÃ¡c": 1673,
  "eÄ¾": 1674,
  "idel": 1675,
  "ĠvÃ½stav": 1676,
  "jat": 1677,
  "lad": 1678,
  "Ġra": 1679,
  "ĠdosÅ¥": 1680,
  "Ġpoza": 1681,
  "ĠÃºdajov": 1682,
  "ĠprÃŃbeh": 1683,
  "Ġskvel": 1684,
  "ciÃŃ": 1685,
  "Ġduch": 1686,
  "Ġdi": 1687,
  "Ġspotreb": 1688,
  "ĠpomÃ¡h": 1689,
  "eho": 1690,
  "toÄį": 1691,
  "Ġposl": 1692,
  "ĠveÄįer": 1693,
  "ĠpatrÃŃ": 1694,
  "Ġzim": 1695,
  "Ġzamestnan": 1696,
  "ĠÃºzem": 1697,
  "ĠÅ¡tvr": 1698,
  "niansk": 1699,
  "inÃ¡rod": 1700,
  "oÅ¡": 1701,
  "ĠpokraÄį": 1702,
  "kovÃ½ch": 1703,
  "Ġtroj": 1704,
  "Ġge": 1705,
  "Ġfotograf": 1706,
  "enou": 1707,
  "Ġjemn": 1708,
  "Ġsveta": 1709,
  "ickÃ©mu": 1710,
  "log": 1711,
  "ĠÅ¡koly": 1712,
  "hÄ¾adom": 1713,
  "ĠakÃ©": 1714,
  "Ġdobro": 1715,
  "Ġzamer": 1716,
  "Ġvyber": 1717,
  "Ġpredo": 1718,
  "ĠblÃŃz": 1719,
  "Ġdohod": 1720,
  "ĠnovÃ½": 1721,
  "daje": 1722,
  "ĠÅ¡kod": 1723,
  "Ġnajo": 1724,
  "dr": 1725,
  "nutia": 1726,
  "ĠnÃ¡klad": 1727,
  "Ġvozid": 1728,
  "otav": 1729,
  "Ġceny": 1730,
  "Ġnechc": 1731,
  "Ġinak": 1732,
  "Ġtri": 1733,
  "Ġchor": 1734,
  "Ġhlad": 1735,
  "Ġkuch": 1736,
  "Å¡ÃŃm": 1737,
  "iÃ©r": 1738,
  "Ġstol": 1739,
  "Ã¡vanie": 1740,
  "Ġneho": 1741,
  "Ġubyt": 1742,
  "ĠpriateÄ¾": 1743,
  "Ġolej": 1744,
  "Ġobraz": 1745,
  "Ġtovaru": 1746,
  "Ġvody": 1747,
  "ĠdrÅ¾": 1748,
  "pe": 1749,
  "anej": 1750,
  "Ġzad": 1751,
  "ĠÃºdaje": 1752,
  "ĠpovaÅ¾": 1753,
  "Ġniekedy": 1754,
  "Ġpe": 1755,
  "ĠtÃ¡": 1756,
  "nÃŃcky": 1757,
  "Ġvrch": 1758,
  "ĠtÃ©m": 1759,
  "ickÃŃ": 1760,
  "Ġban": 1761,
  "ĠsvÃ¤t": 1762,
  "Ġspr": 1763,
  "aÄįnÃ©": 1764,
  "ĠzatiaÄ¾": 1765,
  "ĠcÃŃt": 1766,
  "mÃ´cÅ¥": 1767,
  "Ġnoc": 1768,
  "ry": 1769,
  "ĠpredÃ¡vajÃº": 1770,
  "Ġnastav": 1771,
  "and": 1772,
  "ly": 1773,
  "Ġdok": 1774,
  "Ġmnoho": 1775,
  "Ġnasled": 1776,
  "Ġuza": 1777,
  "Ġvtedy": 1778,
  "ard": 1779,
  "ĠspÃ´sobom": 1780,
  "Ã¡no": 1781,
  "ĠprÃ¡vo": 1782,
  "Ġjednoducho": 1783,
  "enÃ½mi": 1784,
  "ĠzaÄį": 1785,
  "Ġvek": 1786,
  "iÃ¡ch": 1787,
  "Ġnepr": 1788,
  "iska": 1789,
  "Äįek": 1790,
  "Ġmili": 1791,
  "ĠhneÄı": 1792,
  "Ġdovol": 1793,
  "Ġpark": 1794,
  "Ġ/": 1795,
  "Ġminister": 1796,
  "Ġklient": 1797,
  "âĤ": 1798,
  "vaÄį": 1799,
  "ĠzaÄįÃŃn": 1800,
  "âĤ¬": 1801,
  "Ġjazd": 1802,
  "Ġmies": 1803,
  "Ġcit": 1804,
  "ĠstaÄį": 1805,
  "Ġnajviac": 1806,
  "znÃ¡m": 1807,
  "ĠoÄį": 1808,
  "Ġumiest": 1809,
  "ĠzÃ¡hrad": 1810,
  "Ġar": 1811,
  "ĠpoÄ¾": 1812,
  "Ġupo": 1813,
  "Ġstrany": 1814,
  "Ġobsahuje": 1815,
  "Ġnemec": 1816,
  "kovÃ©ho": 1817,
  "ĠzvyÅ¡": 1818,
  "ĠÄįÃŃm": 1819,
  "nÃ¡sob": 1820,
  "ĠmedzinÃ¡rod": 1821,
  "ĠÄıalÅ¡ÃŃch": 1822,
  "Ġpartne": 1823,
  "ĠÅ¡tyr": 1824,
  "Ġklub": 1825,
  "Ġkomunik": 1826,
  "ast": 1827,
  "ĠneskÃ´r": 1828,
  "Ġvide": 1829,
  "Ġmenej": 1830,
  "Ġurl": 1831,
  "ĠmanÅ¾el": 1832,
  "Ġsebe": 1833,
  "nutÃŃ": 1834,
  "livosÅ¥": 1835,
  "Ġnajs": 1836,
  "nutÃ©": 1837,
  "Ġvyzer": 1838,
  "Ġsprac": 1839,
  "Ġoper": 1840,
  "Ġadres": 1841,
  "Ġhlas": 1842,
  "ĠhovorÃŃ": 1843,
  "Ġhran": 1844,
  "Ã¡kov": 1845,
  "Ġvstup": 1846,
  "Ġdizajn": 1847,
  "ĠmÃ´Å¾eme": 1848,
  "cami": 1849,
  "aniu": 1850,
  "Ġmieste": 1851,
  "ĠveÄ¾kÃ©": 1852,
  "Ġpomer": 1853,
  "Ġpevn": 1854,
  "iÄįka": 1855,
  "Ġminim": 1856,
  "ĠcieÄ¾om": 1857,
  "Ġrokoch": 1858,
  "ĠpoÄįÃŃt": 1859,
  "ĠzahraniÄį": 1860,
  "Ġpotrav": 1861,
  "Ġav": 1862,
  "Ġstrat": 1863,
  "Ġmoc": 1864,
  "tÃŃv": 1865,
  "Ġods": 1866,
  "ĠtakÃ½": 1867,
  "Ġfung": 1868,
  "ĠsÃºhlas": 1869,
  "Ġniekto": 1870,
  "Ġroka": 1871,
  "zv": 1872,
  "Ġcm": 1873,
  "Ġstoj": 1874,
  "Ġhoci": 1875,
  "Ġnajroz": 1876,
  "Ġsem": 1877,
  "Ġsyn": 1878,
  "Ġpodstat": 1879,
  "uÅ¡": 1880,
  "Ġoby": 1881,
  "Ġ<": 1882,
  "Ġ14": 1883,
  "ĠzlepÅ¡": 1884,
  "ĠkategÃ³r": 1885,
  "stvu": 1886,
  "ĠÃºspeÅ¡": 1887,
  "Ġmet": 1888,
  "Ġprostried": 1889,
  "ĠoznaÄį": 1890,
  "os": 1891,
  "Ġpozem": 1892,
  "Ġopatr": 1893,
  "lom": 1894,
  "ĠteÅ¡": 1895,
  "Ġporoz": 1896,
  "Ġpovedal": 1897,
  "pozit": 1898,
  "ĠpÃ¤Å¥": 1899,
  "kÃ½mi": 1900,
  "Ã¡lnu": 1901,
  "Ġkop": 1902,
  "Ġobjekt": 1903,
  "Ġdrob": 1904,
  "ĠslÃ¡v": 1905,
  "ĠobjednÃ¡v": 1906,
  "Ġ100": 1907,
  "nia": 1908,
  "Ġinvest": 1909,
  "ĠvÃ¡Å¾": 1910,
  "Ġprez": 1911,
  "ĠobÄ¾Ãºb": 1912,
  "Ġhod": 1913,
  "Ġtakto": 1914,
  "ĠstoroÄį": 1915,
  "ĠÄ¾ahko": 1916,
  "ove": 1917,
  "Ġpolo": 1918,
  "Ġdostup": 1919,
  "ĠÄ¾u": 1920,
  "Ġrozdiel": 1921,
  "Ġstrane": 1922,
  "nÃŃctva": 1923,
  "nil": 1924,
  "Ġ:)": 1925,
  "skym": 1926,
  "ĠvrÃ¡tane": 1927,
  "Ġpripo": 1928,
  "ĠnemÃ¡": 1929,
  "ĠÅ¡tudent": 1930,
  "Ġpovrch": 1931,
  "ĠpriÄįom": 1932,
  "Ġmoment": 1933,
  "Ġ16": 1934,
  "ĠvÅ¡eobec": 1935,
  "Ġdostat": 1936,
  "Ġzmluvy": 1937,
  "Ġpodar": 1938,
  "Ġrus": 1939,
  "ĠkÃ½m": 1940,
  "Å¡li": 1941,
  "Ġrealiz": 1942,
  "Ġco": 1943,
  "Ġles": 1944,
  "itom": 1945,
  "ĠstrÃ¡nke": 1946,
  "ĠsÃŃ": 1947,
  "ĠÅ¾ivo": 1948,
  "Ġ0": 1949,
  "Ġslovenska": 1950,
  "Ġkr": 1951,
  "ĠtechnolÃ³g": 1952,
  "Ġcelkom": 1953,
  "Ġnevz": 1954,
  "ĠdÃ´leÅ¾itÃ©": 1955,
  "Ġpiat": 1956,
  "ĠkoneÄį": 1957,
  "Ã¡ciÃ¡ch": 1958,
  "tra": 1959,
  "Ġkuchy": 1960,
  "ĠspoluprÃ¡c": 1961,
  "ĠtvÃ¡r": 1962,
  "Ġdomov": 1963,
  "Ġrodin": 1964,
  "ĠprÃŃpadne": 1965,
  "pri": 1966,
  "Ġnoh": 1967,
  "Ġpravidel": 1968,
  "ĠkonkrÃ©t": 1969,
  "Ġtrochu": 1970,
  "ĠvytvÃ¡r": 1971,
  "Ġdokument": 1972,
  "ujÃºcich": 1973,
  "Ġnaju": 1974,
  "Ġpresne": 1975,
  "Ġpredmet": 1976,
  "pl": 1977,
  "ĠpoÄįet": 1978,
  "ĠÄıalÅ¡ÃŃ": 1979,
  "ĠdieÅ¥a": 1980,
  "siat": 1981,
  "Ġkeby": 1982,
  "Ġded": 1983,
  "ĠpÃ¡s": 1984,
  "Ġviacer": 1985,
  "Ã¡vania": 1986,
  "ĠovlÃ¡d": 1987,
  "ĠÃºÄįast": 1988,
  "Ġnorm": 1989,
  "Ġzobraz": 1990,
  "Ġti": 1991,
  "Ġvysoko": 1992,
  "Ġpoist": 1993,
  "pozÃŃcii": 1994,
  "ĠÄįasu": 1995,
  "kovÃº": 1996,
  "Ġslobod": 1997,
  "ĠnÃ¡jsÅ¥": 1998,
  "ĠkrÃ¡Ä¾": 1999,
  "stÃŃ": 2000,
  "ĠpoÅ¾iadav": 2001,
  "Ġroky": 2002,
  "Ġmaxim": 2003,
  "tieÅ¾": 2004,
  "isko": 2005,
  "ĠorgÃ¡n": 2006,
  "ĠznamenÃ¡": 2007,
  "ĠvyuÅ¾ÃŃv": 2008,
  "Ġmobil": 2009,
  "Ġhistor": 2010,
  "Ġgeo": 2011,
  "Ġchlap": 2012,
  "ĠtaktieÅ¾": 2013,
  "ĠsÃŃce": 2014,
  "Ġmesto": 2015,
  "ski": 2016,
  "ĠnÃŃm": 2017,
  "Ġoka": 2018,
  "Å¥a": 2019,
  "Ġpsych": 2020,
  "ĠrozprÃ¡v": 2021,
  "lik": 2022,
  "ĠzÃ¡ujem": 2023,
  "Ġpodu": 2024,
  "ĠÄıak": 2025,
  "Ġbole": 2026,
  "Ġvyjadr": 2027,
  "Ġneviem": 2028,
  "oÄįi": 2029,
  "ÃŃka": 2030,
  "vate": 2031,
  "he": 2032,
  "ĠÅĪom": 2033,
  "bou": 2034,
  "Ġov": 2035,
  "Ġrepubliky": 2036,
  "Ġserv": 2037,
  "Ġlok": 2038,
  "ĠvÃ½voj": 2039,
  "iace": 2040,
  "vyÅ¡e": 2041,
  "ĠzaloÅ¾": 2042,
  "Ġ17": 2043,
  "ĠchrÃ¡n": 2044,
  "pev": 2045,
  "ĠcviÄį": 2046,
  "ĠdetÃŃ": 2047,
  "ĠnavyÅ¡e": 2048,
  "Ġtvar": 2049,
  "per": 2050,
  "art": 2051,
  "Ġhrad": 2052,
  "iÄįiek": 2053,
  "vÃŃj": 2054,
  "Ġnapo": 2055,
  "Å¡lo": 2056,
  "stin": 2057,
  "ĠÂ§": 2058,
  "Ġvar": 2059,
  "Ġpredpis": 2060,
  "Ġprekvap": 2061,
  "ĠvhodnÃ©": 2062,
  "ĠvÃ½chod": 2063,
  "Ġ11": 2064,
  "Ġautomat": 2065,
  "Ġangl": 2066,
  "jÃº": 2067,
  "ÅĪou": 2068,
  "Ġdiev": 2069,
  "ĠnÃ¡zor": 2070,
  "ĠsÃºbor": 2071,
  "Ġsub": 2072,
  "ĠprÃŃleÅ¾ito": 2073,
  "anÃ©ho": 2074,
  "Ġ%": 2075,
  "Ġpom": 2076,
  "Ġnere": 2077,
  "ab": 2078,
  "ĠtÃ½mto": 2079,
  "Ġ13": 2080,
  "rÃ¡t": 2081,
  "ÅĪujÃº": 2082,
  "Ã¡ciami": 2083,
  "ĠvnÃºtor": 2084,
  "Å¡om": 2085,
  "Ġdruhej": 2086,
  "Ġzariadenia": 2087,
  "Ġtelo": 2088,
  "vÅ¡et": 2089,
  "Ġstup": 2090,
  "Ġcom": 2091,
  "ÃŃmi": 2092,
  "ĠskonÄį": 2093,
  "ÅĪu": 2094,
  "Ã©ri": 2095,
  "Ġdoma": 2096,
  "skymi": 2097,
  "chÃ¡dzajÃº": 2098,
  "vÃ´li": 2099,
  "ĠniÅ¾": 2100,
  "ĠÅ¡Å¥ast": 2101,
  "Ġpotvrd": 2102,
  "Ġjedna": 2103,
  "Ġznov": 2104,
  "ĠÅ¾iadne": 2105,
  "Ġkart": 2106,
  "Ġmail": 2107,
  "Ġcharakter": 2108,
  "Ġtur": 2109,
  "Ġdia": 2110,
  "ĠvÃŃÅ¥az": 2111,
  "Ġpohodl": 2112,
  "Ã¡lnym": 2113,
  "ovacie": 2114,
  "ana": 2115,
  "anom": 2116,
  "ĠsluÅ¾ieb": 2117,
  "ĠpredovÅ¡et": 2118,
  "ĠpredovÅ¡etkÃ½m": 2119,
  "ĠdneÅ¡": 2120,
  "ĠnapÃŃs": 2121,
  "ĠpokoÅ¾": 2122,
  "Å¡la": 2123,
  "Ġhmot": 2124,
  "nÃŃcke": 2125,
  "Ġ25": 2126,
  "skoro": 2127,
  "ĠveÄ¾kÃ½": 2128,
  "ĠÃºprav": 2129,
  "Ã¡vateÄ¾": 2130,
  "ĠuskutoÄį": 2131,
  "Ġjednej": 2132,
  "Ġprofesion": 2133,
  "Ġpov": 2134,
  "ĠrobiÅ¥": 2135,
  "ĠzÃ¡ver": 2136,
  "ĠpovedaÅ¥": 2137,
  "ĠbudÃºc": 2138,
  "Ġmas": 2139,
  "Ġprejav": 2140,
  "Å¡ieho": 2141,
  "ĠzÃ¡vis": 2142,
  "Ġtran": 2143,
  "Ġnajb": 2144,
  "Ġrozvoj": 2145,
  "ĠtisÃŃc": 2146,
  "ĠdÃ¡t": 2147,
  "ĠdobrÃ©": 2148,
  "Ġryb": 2149,
  "Å¡ak": 2150,
  "ĠÄįÃŃslo": 2151,
  "encie": 2152,
  "skemu": 2153,
  "Ġuniverz": 2154,
  "Ġtried": 2155,
  "ĠzaÄįiatku": 2156,
  "ĠavÅ¡ak": 2157,
  "inami": 2158,
  "Ġkrok": 2159,
  "Ãºt": 2160,
  "ĠstaÄįÃŃ": 2161,
  "ĠÅ¾eny": 2162,
  "nemu": 2163,
  "Ġslab": 2164,
  "icu": 2165,
  "Ġploch": 2166,
  "Ġrada": 2167,
  "Ġrastl": 2168,
  "ĠniektorÃ½ch": 2169,
  "ĠdievÄį": 2170,
  "Ġop": 2171,
  "Ġnepoza": 2172,
  "stvÃ¡": 2173,
  "Ġnezne": 2174,
  "ĠsÃ¡m": 2175,
  "Ġana": 2176,
  "Ġtest": 2177,
  "ĠsystÃ©mu": 2178,
  "se": 2179,
  "Ġmimo": 2180,
  "Ġsamostat": 2181,
  "ĠdesaÅ¥": 2182,
  "Ġchlad": 2183,
  "ĠnenÃ¡": 2184,
  "ĠkvÃ´li": 2185,
  "Ġvzor": 2186,
  "ĠvÃ½skum": 2187,
  "ĠzÃºÄįast": 2188,
  "Ġsuch": 2189,
  "ĠsezÃ³n": 2190,
  "aÄįnÃ½ch": 2191,
  "kovom": 2192,
  "ĠvÃ½nim": 2193,
  "ĠnÃ¡Å¡ho": 2194,
  "spev": 2195,
  "Ãºra": 2196,
  "Ġpodmienky": 2197,
  "Ġkvet": 2198,
  "Ã¡rov": 2199,
  "nili": 2200,
  "ĠÄįloveka": 2201,
  "Ġsled": 2202,
  "Ġrovno": 2203,
  "atiz": 2204,
  "ĠÅ¡irok": 2205,
  "nenÃ©": 2206,
  "Ġzvol": 2207,
  "Ġpovol": 2208,
  "ĠprinÃ¡Å¡": 2209,
  "ĠprvÃ©": 2210,
  "ĠduÅ¡": 2211,
  "Ġverz": 2212,
  "nes": 2213,
  "aÄįnÃ½": 2214,
  "ĠboÅ¾": 2215,
  "ĠÄįlÃ¡nok": 2216,
  "ĠchÃ½b": 2217,
  "ĠÄ¾uÄı": 2218,
  "ĠjednÃ©ho": 2219,
  "nÃŃkmi": 2220,
  "pro": 2221,
  "ĠtÃŃ": 2222,
  "Ġprirodz": 2223,
  "Ġmiesta": 2224,
  "vam": 2225,
  "ament": 2226,
  "Ġkapit": 2227,
  "Ġstaveb": 2228,
  "Ġsedem": 2229,
  "Ġskl": 2230,
  ",\"": 2231,
  "Ġpac": 2232,
  "ĠproblÃ©my": 2233,
  "ĠskÃºÅ¡": 2234,
  "Ġresp": 2235,
  "ĠprÃ¡cu": 2236,
  "Ġpeniaz": 2237,
  "ĠslÃºÅ¾": 2238,
  "ĠnÃŃz": 2239,
  "krÃ¡t": 2240,
  "Ġpokoj": 2241,
  "stvami": 2242,
  "Ġal": 2243,
  "ĠnajvyÅ¡": 2244,
  "ĠÃºrov": 2245,
  "ĠvidieÅ¥": 2246,
  "Ġstroj": 2247,
  "ovanej": 2248,
  "Ġvzduch": 2249,
  "jem": 2250,
  "Ġzoznam": 2251,
  "19": 2252,
  "Ġspokoj": 2253,
  "yn": 2254,
  "Ġpredpo": 2255,
  "ovky": 2256,
  "nici": 2257,
  "ber": 2258,
  "Ġstrav": 2259,
  "Ġ50": 2260,
  "Ġslovensko": 2261,
  "Ġpozit": 2262,
  "nica": 2263,
  "Ġdver": 2264,
  "rist": 2265,
  "ĠpomÃ´": 2266,
  "Ġtrhu": 2267,
  "ĠoÄįak": 2268,
  "Ġrozpo": 2269,
  ".\"": 2270,
  "atÃ¡": 2271,
  "Ġka": 2272,
  "Ġdokonal": 2273,
  "ĠnÃ¡roÄį": 2274,
  "rad": 2275,
  "Ġsmr": 2276,
  "ĠpÃ¡Äį": 2277,
  "Ãºry": 2278,
  "Ġbudeme": 2279,
  "ĠpouÅ¾iÅ¥": 2280,
  "ivo": 2281,
  "Ġcena": 2282,
  "Ġtrest": 2283,
  "oÄįne": 2284,
  "Ã¡d": 2285,
  "znÃ¡": 2286,
  "ĠnÃ¡stroj": 2287,
  "Ġ2018": 2288,
  ".,": 2289,
  "Äįtu": 2290,
  "dol": 2291,
  "acie": 2292,
  "ĠrÃ¡d": 2293,
  "ĠprÃŃspev": 2294,
  "opis": 2295,
  "Ġy": 2296,
  "ĠbrÃ¡n": 2297,
  "iÄįku": 2298,
  "ĠakÃ½": 2299,
  "Ãºci": 2300,
  "ĠkoÅ¡ic": 2301,
  "Ġsad": 2302,
  "Ġuprav": 2303,
  "ĠuÅ¾ÃŃva": 2304,
  "Ġoz": 2305,
  "kovÃ½m": 2306,
  "ĠdaÅĪ": 2307,
  "ig": 2308,
  "Ġobce": 2309,
  "Ġsvojom": 2310,
  "rom": 2311,
  "ĠmyslÃŃm": 2312,
  "Ġjednu": 2313,
  "stÃ¡v": 2314,
  "Ġnakon": 2315,
  "Ä¾ahÄį": 2316,
  "vedom": 2317,
  "ĠÅ¥aÅ¾ko": 2318,
  "ĠâĤ¬": 2319,
  "Ġnimi": 2320,
  "ĠdispozÃŃcii": 2321,
  "ĠvoÄįi": 2322,
  "line": 2323,
  "ĠobyvateÄ¾": 2324,
  "Ġkys": 2325,
  "Ġdestin": 2326,
  "Ã¡ciÃ¡m": 2327,
  "ĠkaÅ¾dÃ©ho": 2328,
  "Ġminu": 2329,
  "ĠzruÅ¡": 2330,
  "ĠprÃŃliÅ¡": 2331,
  "Ġlog": 2332,
  "Ġfareb": 2333,
  "saÅ¥": 2334,
  "depodob": 2335,
  "Ġhy": 2336,
  "anÃº": 2337,
  "kovou": 2338,
  "Ġos": 2339,
  "Ġochor": 2340,
  "ovanÃ©ho": 2341,
  "Ġnajza": 2342,
  "ĠosobnÃ½ch": 2343,
  "futbal": 2344,
  "Ġnenad": 2345,
  "ĠvÅ¡etkÃ½m": 2346,
  "Ã¡ri": 2347,
  "Ġzub": 2348,
  "ĠnÃ¡kup": 2349,
  "ĠnovÃ½ch": 2350,
  "Ġmam": 2351,
  "Ġpolov": 2352,
  "Ġzd": 2353,
  "eko": 2354,
  "ĠpoÄįÃŃtaÄį": 2355,
  "hnut": 2356,
  "ĠkÃºpeÄ¾": 2357,
  "ĠkniÅ¾": 2358,
  "ĠriaditeÄ¾": 2359,
  "Ġprezent": 2360,
  "Ġsms": 2361,
  "Ġtrans": 2362,
  "jeme": 2363,
  "ymi": 2364,
  "ĠsÃºkrom": 2365,
  "ĠsprÃ¡vne": 2366,
  "Ġvlastne": 2367,
  "sÅ¥ou": 2368,
  "Ġrady": 2369,
  "Ġodol": 2370,
  "Ġmohol": 2371,
  "ÅĪami": 2372,
  "Ġsten": 2373,
  "ĠpamÃ¤t": 2374,
  "Ġnas": 2375,
  "Ġfutbal": 2376,
  "Ġnavrh": 2377,
  "ikom": 2378,
  "Ġbio": 2379,
  "Ġpostupne": 2380,
  "Ġmodr": 2381,
  "ĠÅ¾iar": 2382,
  "ĠvÃ¡Å¡ho": 2383,
  "ĠinformÃ¡ciÃŃ": 2384,
  "ĠdobrÃ½": 2385,
  "tro": 2386,
  "ĠkonÅ¡truk": 2387,
  "Ã¡ra": 2388,
  "Ġtvoj": 2389,
  "iÃ¡m": 2390,
  "Ġkrit": 2391,
  "Ġekonom": 2392,
  "Ġtaj": 2393,
  "Ġmajst": 2394,
  "enÃ©mu": 2395,
  "Ġobec": 2396,
  "Ġ[": 2397,
  "ĠnÃ¡sledne": 2398,
  "Ġumel": 2399,
  "ed": 2400,
  "Ġsv": 2401,
  "ĠÄįinnosti": 2402,
  "ĠpribliÅ¾": 2403,
  "Ġodpad": 2404,
  "Ġmoje": 2405,
  "Ġpriemer": 2406,
  "Ġregistr": 2407,
  "Ġnakoniec": 2408,
  "Ġkostol": 2409,
  "Ġradi": 2410,
  "Ġosoby": 2411,
  "Ġmaj": 2412,
  "Ġteplot": 2413,
  "ĠvaÅ¡ej": 2414,
  "Ġvyh": 2415,
  "ĠtradiÄį": 2416,
  "Ġkm": 2417,
  "lepÅ¡ÃŃ": 2418,
  "Ġkomis": 2419,
  "veÄ¾a": 2420,
  "Ġvynik": 2421,
  "Ġinter": 2422,
  "ĠzÃ¡bav": 2423,
  "ĠÃŃsÅ¥": 2424,
  "behu": 2425,
  "10": 2426,
  "Ġcenu": 2427,
  "ĠtelefÃ³n": 2428,
  "ĠtÃ½k": 2429,
  "Ġnajvy": 2430,
  "itou": 2431,
  "ĠÅ¾iak": 2432,
  "ĠvnÃºtr": 2433,
  "Ġci": 2434,
  "Ġprim": 2435,
  "Ġminul": 2436,
  "avej": 2437,
  "trov": 2438,
  "Ġrozmer": 2439,
  "Ġher": 2440,
  "Ġchyb": 2441,
  "ĠnajvÃ¤Äį": 2442,
  "Ġnovo": 2443,
  "led": 2444,
  "200": 2445,
  "Ġcudz": 2446,
  "tÃ½m": 2447,
  "ĠzariadenÃŃ": 2448,
  "iet": 2449,
  "ĠhodÃŃn": 2450,
  "Ġ199": 2451,
  "ĠkrÃ¡sne": 2452,
  "Ġsever": 2453,
  "Ġkurz": 2454,
  "ĠspomÃŃn": 2455,
  "Ġsebou": 2456,
  "ike": 2457,
  "Ġzachov": 2458,
  "Ġporovn": 2459,
  "Ġpacien": 2460,
  "Ġblog": 2461,
  "tel": 2462,
  "aÄįnÃ©ho": 2463,
  "Ġmm": 2464,
  "Ġdomu": 2465,
  "ĠtrÃ¡v": 2466,
  "Ġvedom": 2467,
  "ĠudrÅ¾": 2468,
  "coch": 2469,
  "Ġped": 2470,
  "vame": 2471,
  "ge": 2472,
  "ajÃºcich": 2473,
  "Ġmotor": 2474,
  "\".": 2475,
  "ĠvÃ½sledky": 2476,
  "Ã©n": 2477,
  "Ġstrom": 2478,
  "Ġulic": 2479,
  "ĠskutoÄįne": 2480,
  "Ġmed": 2481,
  "ĠÅ¾elez": 2482,
  "ĠstrÃ¡nky": 2483,
  "zident": 2484,
  "Ġdvad": 2485,
  "ato": 2486,
  "Ġsuper": 2487,
  "Ġhudob": 2488,
  "Ġpas": 2489,
  "Ġzvier": 2490,
  "Ġnarod": 2491,
  "inÃ¡m": 2492,
  "ĠkupujÃºci": 2493,
  "ied": 2494,
  "Ġnekon": 2495,
  "Ġtm": 2496,
  "ĠdruÅ¾": 2497,
  "uc": 2498,
  "Ġpredsed": 2499,
  "Ġzao": 2500,
  "istov": 2501,
  "ĠniekoÄ¾k": 2502,
  "ena": 2503,
  "Ġat": 2504,
  "Ġbank": 2505,
  "Ġfinanc": 2506,
  "platnÃ©": 2507,
  "ĠchvÃŃÄ¾": 2508,
  "Ġuspo": 2509,
  "ĠurÄįit": 2510,
  "Ġtrp": 2511,
  "Ġameric": 2512,
  "ĠumoÅ¾ÅĪuje": 2513,
  "Ġdlhodob": 2514,
  "ĠdruhÃ½": 2515,
  "Ġzvuk": 2516,
  "osfÃ©r": 2517,
  "enejÅ¡ie": 2518,
  "ĠhistÃ³r": 2519,
  "Ġmajet": 2520,
  "Ġpeniaze": 2521,
  "ĠÅ¡tandard": 2522,
  "ĠdeÅ¥": 2523,
  "jete": 2524,
  "ĠmyÅ¡l": 2525,
  "ĠobrÃ¡z": 2526,
  "Ġsval": 2527,
  "Ġpravdepodob": 2528,
  "Ġneporoz": 2529,
  "ĠÃ¡no": 2530,
  "ĠdÃ´sled": 2531,
  "Ġbohat": 2532,
  "ĠdÄºÅ¾": 2533,
  "Ġskupiny": 2534,
  "ĠÅ¡at": 2535,
  "Ġmeste": 2536,
  "ĠmÃ¡l": 2537,
  "Ġpripoj": 2538,
  "Ġuvedom": 2539,
  "ĠvyhlÃ¡s": 2540,
  "Ġtou": 2541,
  "ian": 2542,
  "Ġhry": 2543,
  "kÃ©mu": 2544,
  "Ġbratislave": 2545,
  "ovaniu": 2546,
  "liev": 2547,
  "ĠsÃºÄįasnosti": 2548,
  "ĠfrancÃºz": 2549,
  "ĠneÃº": 2550,
  "ora": 2551,
  "Ġelektron": 2552,
  "Ġtzv": 2553,
  "Ġplast": 2554,
  "ĠvÃ¤ÄįÅ¡ina": 2555,
  "Ġuplat": 2556,
  "ĠjednotlivÃ½ch": 2557,
  "Ġprojektu": 2558,
  "Ġvr": 2559,
  "Ġpochop": 2560,
  "ĠznaÄįky": 2561,
  "ĠponÃºkame": 2562,
  "ĠmoÅ¾nosti": 2563,
  "ĠchuÅ¥": 2564,
  "Ġpravid": 2565,
  "Ġstaro": 2566,
  "ĠhospodÃ¡r": 2567,
  "ĠzÃ¡pad": 2568,
  "Ġobr": 2569,
  "kovÃ½mi": 2570,
  "ĠurobiÅ¥": 2571,
  "Ġbratislava": 2572,
  "Ġmar": 2573,
  "ĠprÃŃde": 2574,
  "znamen": 2575,
  "Ġtlak": 2576,
  "Ġmartin": 2577,
  "Ġbudem": 2578,
  "ĠmnohÃ½ch": 2579,
  "Ġcykl": 2580,
  "spel": 2581,
  "enejÅ¡ÃŃm": 2582,
  "nila": 2583,
  "Ġpredpoklad": 2584,
  "adl": 2585,
  "Ġpopul": 2586,
  "ĠdaÅ¥": 2587,
  "ĠtelevÃŃz": 2588,
  "ĠcelÃ©ho": 2589,
  "ĠjednÃ½m": 2590,
  "Ġnao": 2591,
  "ĠoveÄ¾a": 2592,
  "Ġnedostat": 2593,
  "ĠpoloÅ¾": 2594,
  "Ġsiet": 2595,
  "Ġvysvet": 2596,
  "Ġpoplat": 2597,
  "Ġen": 2598,
  "sexu": 2599,
  "livosti": 2600,
  "Ġplyn": 2601,
  "iÄįke": 2602,
  "iÄįkou": 2603,
  "ĠnÃ¡z": 2604,
  "enec": 2605,
  "Ġhviezd": 2606,
  "Ġdobe": 2607,
  "Ġmne": 2608,
  "ĠÅ¡esÅ¥": 2609,
  "Ġleg": 2610,
  "Ġmalo": 2611,
  "enejÅ¡ÃŃch": 2612,
  "ĠkÄ¾ÃºÄį": 2613,
  "ĠsÃºÅ¥aÅ¾e": 2614,
  "Ġus": 2615,
  "ĠoprÃ¡v": 2616,
  "Ġpapier": 2617,
  "Ġhlb": 2618,
  "ĠÃºspech": 2619,
  "Ġnut": 2620,
  "Ġpodobne": 2621,
  "Ġprija": 2622,
  "covi": 2623,
  "Ġchcem": 2624,
  "Ġdej": 2625,
  "stanov": 2626,
  "Ġsum": 2627,
  "Ġpredsa": 2628,
  "Ġliek": 2629,
  "Ġoprav": 2630,
  "Ġkomun": 2631,
  "ĠÅ¾ivote": 2632,
  "kovÃ©mu": 2633,
  "Ġdni": 2634,
  "Ġgraf": 2635,
  "mobil": 2636,
  "Ġpretek": 2637,
  "Ġdoz": 2638,
  "ĠmalÃ©": 2639,
  "Ġkomplet": 2640,
  "ĠmaÄıar": 2641,
  "sun": 2642,
  "ovat": 2643,
  "ĠsÃ©ri": 2644,
  "Ġnerozo": 2645,
  "men": 2646,
  "ĠprÃ¡va": 2647,
  "ĠnauÄį": 2648,
  "ĠnaÅ¡a": 2649,
  "ĠrÃ¡n": 2650,
  "Ġzosta": 2651,
  "Ġudal": 2652,
  "ĠrozÅ¡ÃŃr": 2653,
  "Ġzvyk": 2654,
  "ĠjedineÄį": 2655,
  "Ġabsolv": 2656,
  "ĠukonÄį": 2657,
  "kovÃŃ": 2658,
  "Ġag": 2659,
  "Ġprvom": 2660,
  "ĠÄįom": 2661,
  "ĠuÄįiteÄ¾": 2662,
  "ĠsÃŃdl": 2663,
  "ĠpredchÃ¡dz": 2664,
  "Ġmeno": 2665,
  "ĠinÃ½": 2666,
  "Ã¡ck": 2667,
  "Ġvin": 2668,
  "ĠdokÃ¡Å¾e": 2669,
  "Ġsvojim": 2670,
  "kosti": 2671,
  "Ġpritom": 2672,
  "Ġklik": 2673,
  "Ġ24": 2674,
  "ĠpresvedÄį": 2675,
  "Ġpal": 2676,
  "eniach": 2677,
  "ĠsprÃ¡vy": 2678,
  "ĠrieÅ¡enie": 2679,
  "znÃ¡mi": 2680,
  "yk": 2681,
  "enejÅ¡ÃŃ": 2682,
  "viesÅ¥": 2683,
  "Ġjar": 2684,
  "Ġnebolo": 2685,
  "ff": 2686,
  "Ġhydr": 2687,
  "Ġokn": 2688,
  "ĠzÃŃskaÅ¥": 2689,
  "kovateÄ¾": 2690,
  "ĠpreÄįÃŃt": 2691,
  "Ġprehliad": 2692,
  "Äįiv": 2693,
  "avo": 2694,
  "ies": 2695,
  "ĠÅ¡trukt": 2696,
  "ĠpouÅ¾i": 2697,
  "Ġslad": 2698,
  "Ġocen": 2699,
  "Ã¡rne": 2700,
  "ĠiÅ¡": 2701,
  "Ġrezerv": 2702,
  "Ġovoc": 2703,
  "Ġnepou": 2704,
  "ĠobdobÃŃ": 2705,
  "ĠvÃ¤z": 2706,
  "ĠstoroÄįia": 2707,
  "ĠvÃŃn": 2708,
  "ĠpouÅ¾ÃŃvaÅ¥": 2709,
  "ĠjÃ¡n": 2710,
  "okrat": 2711,
  "Ġrizik": 2712,
  "Ġpodujat": 2713,
  "Ġposlan": 2714,
  "ĠnavÅ¡tÃŃv": 2715,
  "ĠoriginÃ¡l": 2716,
  "Ġosobit": 2717,
  "Ġkancel": 2718,
  "Ġprezident": 2719,
  "Ġkam": 2720,
  "ĠzÃ¡sad": 2721,
  "Ġmon": 2722,
  "ĠinÅ¡pir": 2723,
  "vaÅ¡": 2724,
  "ĠcelÃ©": 2725,
  "Ġfarby": 2726,
  "Ġnikto": 2727,
  "ĠskÃºsenosti": 2728,
  "Ġzlo": 2729,
  "ĠveÄı": 2730,
  "Ġvzdial": 2731,
  "Ġnepoz": 2732,
  "Ġenergie": 2733,
  "produk": 2734,
  "enstvo": 2735,
  "Ġmusia": 2736,
  "ĠzaÄįal": 2737,
  "Ġpomal": 2738,
  "toch": 2739,
  "Ġdetail": 2740,
  "rok": 2741,
  "dy": 2742,
  "vali": 2743,
  "ĠnÃ¡dher": 2744,
  "Ġvplyv": 2745,
  "Ġchut": 2746,
  "ĠzÃ¡stup": 2747,
  "Ġvier": 2748,
  "ruÄį": 2749,
  "ĠdoruÄį": 2750,
  "ĠneprÃŃ": 2751,
  "og": 2752,
  "kÃŃ": 2753,
  "enejÅ¡ia": 2754,
  "ĠzÄ¾av": 2755,
  "ĠkancelÃ¡r": 2756,
  "Ġlin": 2757,
  "ĠnaÅ¡om": 2758,
  "Ġnespo": 2759,
  "kajÃºc": 2760,
  "Ġprogramu": 2761,
  "pa": 2762,
  "ĠukÃ¡z": 2763,
  "ÃŃvny": 2764,
  "Ġzmeny": 2765,
  "vz": 2766,
  "Ġkrajiny": 2767,
  "pred": 2768,
  "aja": 2769,
  "qu": 2770,
  "Ġkov": 2771,
  "Ġzmysl": 2772,
  "Ġpara": 2773,
  "Ġopak": 2774,
  "Ġfirmy": 2775,
  "ĠuÅ¾ÃŃv": 2776,
  "Ġrozum": 2777,
  "Å¡ou": 2778,
  "stiach": 2779,
  "Ġrodiny": 2780,
  "ĠkoÄ¾ko": 2781,
  "Ġtela": 2782,
  "enejÅ¡ou": 2783,
  "etr": 2784,
  "ĠnajvÃ¤ÄįÅ¡": 2785,
  "Ġpercent": 2786,
  "Ġdovolen": 2787,
  "kal": 2788,
  "ĠprÃŃtom": 2789,
  "ĠvyuÅ¾it": 2790,
  "Ġnaopak": 2791,
  "ĠtrÃ©ning": 2792,
  "ĠobleÄį": 2793,
  "ĠmyÅ¡lien": 2794,
  "nÃŃku": 2795,
  "enejÅ¡ej": 2796,
  "ĠkaÅ¾dej": 2797,
  "enejÅ¡ieho": 2798,
  "enejÅ¡iu": 2799,
  "covia": 2800,
  "Ġpodarilo": 2801,
  "Ġba": 2802,
  "ium": 2803,
  "ĠneustÃ¡": 2804,
  "Ġupozor": 2805,
  "ivÃ©": 2806,
  "Ġposkytuje": 2807,
  "ĠpouÅ¾itie": 2808,
  "enejÅ¡ÃŃmi": 2809,
  "Ġindividu": 2810,
  "tia": 2811,
  "kaÅ¥": 2812,
  "Ġatm": 2813,
  "ĠatmosfÃ©r": 2814,
  "ĠdomÃ¡ci": 2815,
  "symbol": 2816,
  "co": 2817,
  "enejÅ¡om": 2818,
  "iÄįkami": 2819,
  "isku": 2820,
  "Ġknihy": 2821,
  "enejÅ¡iemu": 2822,
  "Ġpoly": 2823,
  "Ġobrovsk": 2824,
  "Ġpolic": 2825,
  "ĠÄįaj": 2826,
  "Ġfil": 2827,
  "ĠÅ¡kÃ´l": 2828,
  "ĠsieÅ¥": 2829,
  "ĠvybraÅ¥": 2830,
  "kovo": 2831,
  "ĠdÃ¡v": 2832,
  "ejÃº": 2833,
  "Ġneved": 2834,
  "atÃŃvne": 2835,
  "ĠuloÅ¾": 2836,
  "vi": 2837,
  "uteÄ¾": 2838,
  "Ġtitul": 2839,
  "ĠmÃ¤s": 2840,
  "Ġbrat": 2841,
  "ĠpomÃ´cÅ¥": 2842,
  "ĠkÃ¡v": 2843,
  "Ġpotreby": 2844,
  "Ġobnov": 2845,
  "Ġposil": 2846,
  "ĠpÃ´d": 2847,
  "izmus": 2848,
  "Ġpra": 2849,
  "ÅĪoch": 2850,
  "Ġinf": 2851,
  "avÃ©": 2852,
  "Ġprvej": 2853,
  "ĠpredÃ¡vajÃºci": 2854,
  "Ġprax": 2855,
  "ikÃ¡r": 2856,
  "ovzd": 2857,
  "nilo": 2858,
  "Ġchcel": 2859,
  "ikmi": 2860,
  "ĠnovÃ©ho": 2861,
  "Ã¡z": 2862,
  "Ġnitr": 2863,
  "ĠruÅ¾": 2864,
  "ÅĪov": 2865,
  "aÄįnej": 2866,
  "ĠpribliÅ¾ne": 2867,
  "mbra": 2868,
  "ĠvyÅ¡Å¡ie": 2869,
  "Ġsobot": 2870,
  "nutÃ½": 2871,
  "Ġvyz": 2872,
  "ĠspoloÄįensk": 2873,
  "Ġzverej": 2874,
  "Ġliter": 2875,
  "Ġagent": 2876,
  "ÅĪovaÅ¥": 2877,
  "ĠtermÃŃn": 2878,
  "ĠÃºstav": 2879,
  "kryt": 2880,
  "Ġ2017": 2881,
  "Ġvideo": 2882,
  "ĠdÃ´vodu": 2883,
  "Ġzastav": 2884,
  "ĠdostaÅ¥": 2885,
  "ĠzvlÃ¡d": 2886,
  "ciou": 2887,
  "20": 2888,
  "uÅ¾": 2889,
  "Ġ40": 2890,
  "Ġpiv": 2891,
  "Ġcca": 2892,
  "ĠkaÅ¾dÃ©": 2893,
  "nenia": 2894,
  "Ġpreu": 2895,
  "ĠkamarÃ¡t": 2896,
  "Ġodpoved": 2897,
  "ĠmetÃ³d": 2898,
  "ĠsÃºlad": 2899,
  "ĠvnÃŃm": 2900,
  "Ġrozsah": 2901,
  "Ġviem": 2902,
  "ĠinÃ©ho": 2903,
  "ĠnejakÃ©": 2904,
  "desiat": 2905,
  "ĠzdruÅ¾": 2906,
  "ĠreÅ¡taur": 2907,
  "ovanÃº": 2908,
  "ĠkÃºs": 2909,
  "Ġcelom": 2910,
  "ĠvyskÃºÅ¡": 2911,
  "ĠÄįlÃ¡nku": 2912,
  "Ġneg": 2913,
  "Ġvlasy": 2914,
  "Ġvonkaj": 2915,
  "Ġveku": 2916,
  "ĠosobnÃ©": 2917,
  "ĠÃºÅ¾as": 2918,
  "Ġup": 2919,
  "ĠrÃ¡di": 2920,
  "Ġzaplat": 2921,
  "hnuteÄ¾": 2922,
  "Ġovplyv": 2923,
  "Ġsvojou": 2924,
  "ĠuÅ¾ÃŃvateÄ¾": 2925,
  "ĠdiaÄ¾": 2926,
  "Ġonline": 2927,
  "ĠvzhÄ¾adom": 2928,
  "ĠeÃº": 2929,
  "ĠtÃ½Å¾deÅĪ": 2930,
  "ĠnÃ¡hrad": 2931,
  "iteÄ¾nÃ©": 2932,
  "Ġcelej": 2933,
  "ĠvedieÅ¥": 2934,
  "rt": 2935,
  "ariz": 2936,
  "ĠÄįinnosÅ¥": 2937,
  "Ġuvie": 2938,
  "ĠspotrebiteÄ¾": 2939,
  "ĠÅ¡ÃŃr": 2940,
  "anÃ½m": 2941,
  "50": 2942,
  "iacich": 2943,
  "Ġkomplex": 2944,
  "ibil": 2945,
  "ĠzaÄįali": 2946,
  "Ġad": 2947,
  "der": 2948,
  "ĠmÃ¡lo": 2949,
  "Ġintenz": 2950,
  "Ġobmedz": 2951,
  "kali": 2952,
  "nÃŃkoch": 2953,
  "nist": 2954,
  "nenÃ½": 2955,
  "ste": 2956,
  "ha": 2957,
  "enosÅ¥": 2958,
  "aÅ¥a": 2959,
  "kalo": 2960,
  "nik": 2961,
  "ĠvitamÃŃn": 2962,
  "iÄįkÃ¡ch": 2963,
  "ĠtÃºÅ¾": 2964,
  "nuteÄ¾": 2965,
  "dÃ¡vno": 2966,
  "aÄįky": 2967,
  "ĠnÃ¡pad": 2968,
  "Ġmliek": 2969,
  "ĠdÃ´ver": 2970,
  "ĠpÃŃsom": 2971,
  "Ġobran": 2972,
  "kala": 2973,
  "ĠtÃ½ka": 2974,
  "ĠjednoduchÃ©": 2975,
  "zÃ¡": 2976,
  "ĠplatÃŃ": 2977,
  "ujÃºceho": 2978,
  "Ġve": 2979,
  "nutÃŃm": 2980,
  "ÄįÃŃ": 2981,
  "Ġdobu": 2982,
  "ĠvÃ¡h": 2983,
  "ĠkedykoÄ¾vek": 2984,
  "Ġnovej": 2985,
  "Ġcesty": 2986,
  "vala": 2987,
  "ĠzaÄįala": 2988,
  "ĠÄıakujem": 2989,
  "ĠvaÅ¡ich": 2990,
  "yÄįaj": 2991,
  "ĠÅ¾lt": 2992,
  "Ġplet": 2993,
  "kajÃº": 2994,
  "Ġnajna": 2995,
  "ĠdokÃ¡z": 2996,
  "Ġ000": 2997,
  "ĠÅ¥a": 2998,
  "Ġvln": 2999,
  "ĠbatÃ©r": 3000,
  "ceho": 3001,
  "Ġustanov": 3002,
  "Ġps": 3003,
  "Ġsek": 3004,
  "ĠvhodnÃ½": 3005,
  "ĠpomÃ´Å¾e": 3006,
  "Ġmodl": 3007,
  "Ġukaz": 3008,
  "Ġtypu": 3009,
  "iÄįkÃ¡m": 3010,
  "Ġodovzd": 3011,
  "Å¡ko": 3012,
  "Ġtalian": 3013,
  "Ġsvetlo": 3014,
  "ĠprijÃŃm": 3015,
  "avÃ½": 3016,
  "kajte": 3017,
  "ĠmÃ¡j": 3018,
  "ĠkresÅ¥": 3019,
  "Ġokres": 3020,
  "Ġnemoc": 3021,
  "Ġzelen": 3022,
  "Ġmechan": 3023,
  "kajme": 3024,
  "ĠprÃŃklad": 3025,
  "ĠjeÅ¾iÅ¡": 3026,
  "Ġgo": 3027,
  "Ġformul": 3028,
  "ĠreÃ¡l": 3029,
  "ĠvecÃŃ": 3030,
  "Ġbun": 3031,
  "ote": 3032,
  "ĠregiÃ³n": 3033,
  "ĠnajÃº": 3034,
  "Ã½n": 3035,
  "Ġprodukty": 3036,
  "30": 3037,
  "Å¡Å¥": 3038,
  "Ġstredo": 3039,
  "ĠbÃ½val": 3040,
  "ĠpoÅ¡t": 3041,
  "ĠzÃ¡uj": 3042,
  "hop": 3043,
  "ĠslneÄį": 3044,
  "nÃŃck": 3045,
  "Ġnajpre": 3046,
  "Ġnovin": 3047,
  "Ġzabud": 3048,
  "ĠuvÃ¡dz": 3049,
  "ĠpodnikateÄ¾": 3050,
  "ÃºÄį": 3051,
  "Ġcestu": 3052,
  "Ġplav": 3053,
  "Ġmimoriad": 3054,
  "ĠpÃŃÅ¡": 3055,
  "Ġuzavr": 3056,
  "ĠnemÃ´Å¾e": 3057,
  "ĠÄįel": 3058,
  "ikaÄį": 3059,
  "ĠnejakÃ½": 3060,
  "iva": 3061,
  "ĠnehnuteÄ¾": 3062,
  "ĠveÄ¾kÃ¡": 3063,
  "Ã¡lnom": 3064,
  "Ġaltern": 3065,
  "ĠnÃ¡zvom": 3066,
  "ev": 3067,
  "ĠbuÄı": 3068,
  "Ġsami": 3069,
  "ĠpovinnÃ½": 3070,
  "Ġnebol": 3071,
  "ĠdÃ´chod": 3072,
  "ĠprÃ¡ci": 3073,
  "ĠpredtÃ½m": 3074,
  "ĠÅ¡anc": 3075,
  "Ġnepos": 3076,
  "ĠvyuÅ¾iÅ¥": 3077,
  "Ġval": 3078,
  "ĠokamÅ¾": 3079,
  "lov": 3080,
  "poÄįÃŃt": 3081,
  "ĠuvedenÃ©": 3082,
  "Ġosoba": 3083,
  "ĠpoteÅ¡": 3084,
  "Ġchud": 3085,
  "Ġdal": 3086,
  "Ġusa": 3087,
  "Ġsviat": 3088,
  "ĠvyhÄ¾ad": 3089,
  "Ġvrec": 3090,
  "Ġpris": 3091,
  "Ġsymbol": 3092,
  "nie": 3093,
  "eniami": 3094,
  "Ġsvad": 3095,
  "ĠpomÃ¡ha": 3096,
  "ĠtakÃ©to": 3097,
  "prÃŃ": 3098,
  "Ġpublik": 3099,
  "Ġpriebehu": 3100,
  "ĠpoÄįu": 3101,
  "Ġfa": 3102,
  "Ġstr": 3103,
  "ĠmÃºz": 3104,
  "Ġmoja": 3105,
  "ĠÃºver": 3106,
  "ĠinÅ¡tit": 3107,
  "hl": 3108,
  "Ġeu": 3109,
  "orov": 3110,
  "ĠÃºrovni": 3111,
  "man": 3112,
  "Ġev": 3113,
  "Ġhroz": 3114,
  "ĠnebezpeÄį": 3115,
  "ĠnÃ¡zov": 3116,
  "Ġosem": 3117,
  "Ġfestival": 3118,
  "ĠvÃ¤ÄįÅ¡inou": 3119,
  "ĠkaÅ¾dÃ¡": 3120,
  "ĠvytvoriÅ¥": 3121,
  "izovaÅ¥": 3122,
  "stvÃ¡ch": 3123,
  "Ġcesta": 3124,
  "Ġeleg": 3125,
  "Ġstabil": 3126,
  "zni": 3127,
  "Ġprebieh": 3128,
  "blaho": 3129,
  "Ġsubjekt": 3130,
  "ĠvyÅ¾ad": 3131,
  "Ġoptim": 3132,
  "ista": 3133,
  "Ġ+": 3134,
  "Ġostrov": 3135,
  "Ġkur": 3136,
  "Ġobdobie": 3137,
  "Ġreprezent": 3138,
  "ĠvÃ½men": 3139,
  "Ġzbyt": 3140,
  "Ġoddel": 3141,
  "adla": 3142,
  ".)": 3143,
  "ĠznÃŃÅ¾": 3144,
  "Ġodkaz": 3145,
  "Ġuni": 3146,
  "ĠlyÅ¾": 3147,
  "Ġvlh": 3148,
  "Ġotc": 3149,
  "Ġbyt": 3150,
  "ĠÅ¡kole": 3151,
  "Ġmesiacov": 3152,
  "Ġofic": 3153,
  "ĠÄįit": 3154,
  "ĠmÃ©di": 3155,
  "Ġodmiet": 3156,
  "ĠmajiteÄ¾": 3157,
  "ĠpredplatnÃ©": 3158,
  "Ġspev": 3159,
  "encia": 3160,
  "Ġdrah": 3161,
  "Ġtem": 3162,
  "Ã³nov": 3163,
  "Ġ2016": 3164,
  "ĠkaÅ¾dom": 3165,
  "ĠpÃ´sobÃŃ": 3166,
  "ulin": 3167,
  "oh": 3168,
  "Ġul": 3169,
  "ĠcelÃº": 3170,
  "ek": 3171,
  "Ġkus": 3172,
  "Ġstrel": 3173,
  "ĠobÄįiansk": 3174,
  "ĠzÃ¡sob": 3175,
  "Ġhodn": 3176,
  "ĠchcÃº": 3177,
  "Ġstal": 3178,
  "Ġorient": 3179,
  "Ġspod": 3180,
  "Ġdostal": 3181,
  "ĠvlastnÃ©": 3182,
  "Ġtuk": 3183,
  "Ġpodmienok": 3184,
  "Ġvrstv": 3185,
  "ĠvloÅ¾": 3186,
  "ĠnovÃ¡": 3187,
  "Ġpoloh": 3188,
  "Ġtich": 3189,
  "Ġhodiny": 3190,
  "Ġpreved": 3191,
  "ĠmÃ³d": 3192,
  "Ġdan": 3193,
  "enosti": 3194,
  "ĠmanaÅ¾": 3195,
  "ovne": 3196,
  "Ġostr": 3197,
  "liÅ¾": 3198,
  "jed": 3199,
  "ĠdvadsaÅ¥": 3200,
  "ovanÃ½m": 3201,
  "ple": 3202,
  "Ġpodobe": 3203,
  "ĠrobÃŃ": 3204,
  "ovod": 3205,
  "ĠuÅ¾i": 3206,
  "ĠznÃ¡me": 3207,
  "ikoch": 3208,
  "Ġnevyhnut": 3209,
  "eÅ¾": 3210,
  "ĠdobrovoÄ¾": 3211,
  "Ġpopre": 3212,
  "Ġ21": 3213,
  "Ġty": 3214,
  "Ġreak": 3215,
  "Ġumelec": 3216,
  "Ġpi": 3217,
  "Ġpartner": 3218,
  "ĠÄįÃŃn": 3219,
  "iaÄį": 3220,
  "Ġpad": 3221,
  "Ġhlin": 3222,
  "Ġatrak": 3223,
  "Ġinte": 3224,
  "Ġsprie": 3225,
  "ĠnÃ¡klady": 3226,
  "Ġochranu": 3227,
  "Ġnapln": 3228,
  "Ġlo": 3229,
  "ĠsÃºlade": 3230,
  "Ã¡lnou": 3231,
  "ĠreÅ¾im": 3232,
  "ĠneustÃ¡le": 3233,
  "lav": 3234,
  "koho": 3235,
  "ĠprÃŃj": 3236,
  "ĠdÃºf": 3237,
  "ÃŃs": 3238,
  "aÄįnÃ¡": 3239,
  "adlo": 3240,
  "Ġdem": 3241,
  "ĠslovenskÃ½ch": 3242,
  "Ġpolicaj": 3243,
  "ĠslovenskÃ©ho": 3244,
  "ejÃºc": 3245,
  "Ġabsol": 3246,
  "Ã©ra": 3247,
  "ĠkrÃŃÅ¾": 3248,
  "Ġuzn": 3249,
  "ĠvÃ½Å¡ke": 3250,
  "tiv": 3251,
  "Ġpozo": 3252,
  "Ġnevid": 3253,
  "Ġkonfer": 3254,
  "Ġvel": 3255,
  "Ġdospel": 3256,
  "ĠÅ¾ilin": 3257,
  "ovnÃ©": 3258,
  "ĠkoneÄįne": 3259,
  "Ġrozhodne": 3260,
  "ĠzaruÄį": 3261,
  "ĠinÅ¡tal": 3262,
  "ĠÄįiast": 3263,
  "Ġpodporu": 3264,
  "Ġthe": 3265,
  "leÅ¾ÃŃ": 3266,
  "ĠzaÄįÃŃna": 3267,
  "Ġceste": 3268,
  "Ġzbier": 3269,
  "Ġover": 3270,
  "so": 3271,
  "jÃºc": 3272,
  "ĠsvojÃŃm": 3273,
  "prie": 3274,
  "Ġrekon": 3275,
  "dav": 3276,
  "ĠnezÃ¡": 3277,
  "ĠviacerÃ½ch": 3278,
  "Ġbohu": 3279,
  "valo": 3280,
  "Ġprostredia": 3281,
  "ĠosÃ´b": 3282,
  "Ġsep": 3283,
  "ĠpoÅ¾": 3284,
  "Ġkamen": 3285,
  "Ġchceli": 3286,
  "Ġnemoh": 3287,
  "ĠstojÃŃ": 3288,
  "ĠprÃŃÄįin": 3289,
  "ĠzÃ¡kaznÃŃkov": 3290,
  "ĠradÅ¡ej": 3291,
  "ejte": 3292,
  "Ġkvality": 3293,
  "ĠpozrieÅ¥": 3294,
  "hr": 3295,
  "ĠnajlepÅ¡": 3296,
  "ĠvaÅ¡u": 3297,
  "Ġnepria": 3298,
  "Ġeuro": 3299,
  "Ġpreprav": 3300,
  "Ġpredstavuje": 3301,
  "Ġdiskus": 3302,
  "ĠprehÄ¾ad": 3303,
  "ĠÃºz": 3304,
  "ĠrÃ¡no": 3305,
  "ĠspoÄ¾ah": 3306,
  "ĠkrÃ©m": 3307,
  "ĠpouÅ¾ÃŃvateÄ¾": 3308,
  "Ġnajnov": 3309,
  "chutn": 3310,
  "ĠukÃ¡Å¾": 3311,
  "ĠktorÃ½mi": 3312,
  "11": 3313,
  "Ġzapoj": 3314,
  "Ġskoro": 3315,
  "ĠjÃºn": 3316,
  "ejme": 3317,
  "ĠveÄ¾kej": 3318,
  "stiam": 3319,
  "Ġlak": 3320,
  "Ġosobne": 3321,
  "pÃŃj": 3322,
  "\",": 3323,
  "Ġchcela": 3324,
  "ĠpozÃŃ": 3325,
  "ĠdvanÃ¡": 3326,
  "ga": 3327,
  "Ġident": 3328,
  "ĠvzhÄ¾ad": 3329,
  "Ġap": 3330,
  "Ã³r": 3331,
  "jte": 3332,
  "Ġmohla": 3333,
  "ĠprosÃŃm": 3334,
  "Ġnami": 3335,
  "Ġvari": 3336,
  "Ġosvet": 3337,
  "Ġprinies": 3338,
  "ĠvystÃºp": 3339,
  "Äįia": 3340,
  "ĠÄįerstv": 3341,
  "Ġvymen": 3342,
  "ub": 3343,
  "Ġspln": 3344,
  "sh": 3345,
  "Ġvyhr": 3346,
  "vyÄįaj": 3347,
  "sÅ¥ami": 3348,
  "ĠfanÃºÅ¡": 3349,
  "ĠpreÅ¡ov": 3350,
  "ĠzÃ¡vÃ¤z": 3351,
  "Ġstop": 3352,
  "ĠvedÄ¾": 3353,
  "ĠbÃ¡b": 3354,
  "Ġpreklad": 3355,
  "ĠobjednÃ¡vky": 3356,
  "Ġzbor": 3357,
  "Ġpust": 3358,
  "ĠÃºni": 3359,
  "Ġ?": 3360,
  "ĠdestinÃ¡cii": 3361,
  "avejÅ¡ie": 3362,
  "Ġrade": 3363,
  "atick": 3364,
  "Ġdesiat": 3365,
  "Ġpopis": 3366,
  "ĠprÃ¡ca": 3367,
  "ĠnovÃº": 3368,
  "kÃ¡me": 3369,
  "nuc": 3370,
  "Ġminulosti": 3371,
  "ĠfunkÄį": 3372,
  "ĠÃºÄįt": 3373,
  "Ġpotrebujete": 3374,
  "ĠnaÅ¡u": 3375,
  "Ġkoncert": 3376,
  "mov": 3377,
  "Ġliet": 3378,
  "nutÃ¡": 3379,
  "Ġbrit": 3380,
  "ĠvyÅ¡etr": 3381,
  "Ġvoda": 3382,
  "Ġcukr": 3383,
  "ĠÅ¡tÃ¡tu": 3384,
  "otu": 3385,
  "ĠkaÅ¾dÃº": 3386,
  "ĠspÃ¤Å¥": 3387,
  "avejÅ¡ÃŃch": 3388,
  "Ġplod": 3389,
  "Ġ60": 3390,
  "yt": 3391,
  "ovacÃŃch": 3392,
  "ĠmÃ´Å¾em": 3393,
  "ĠÅ¡peciÃ¡lne": 3394,
  "Ġzariadenie": 3395,
  "Ġautomobil": 3396,
  "kovaÅ¥": 3397,
  "Ġprehr": 3398,
  "ĠnesÃº": 3399,
  "ĠnedeÄ¾": 3400,
  "kovi": 3401,
  "Ġparame": 3402,
  "ĠotÃ¡zky": 3403,
  "vÃŃkend": 3404,
  "atÃŃ": 3405,
  "ĠmusÃŃm": 3406,
  "Ġdez": 3407,
  "kÃ¡Å¡": 3408,
  "Ġdenne": 3409,
  "kych": 3410,
  "Ġadapt": 3411,
  "izuje": 3412,
  "Ġpamiat": 3413,
  "Ġkniha": 3414,
  "ĠnajbliÅ¾": 3415,
  "ero": 3416,
  "Ġdoklad": 3417,
  "ĠokolÃŃ": 3418,
  "Ġprst": 3419,
  "ikou": 3420,
  "Ġfon": 3421,
  "Ġpomerne": 3422,
  "Ġenerget": 3423,
  "ĠÄıaleko": 3424,
  "ĠvlÃ¡dy": 3425,
  "ĠmusÃŃte": 3426,
  "12": 3427,
  "ĠporuÅ¡": 3428,
  "sprÃ¡v": 3429,
  "ps": 3430,
  "ĠzaujÃŃmavÃ©": 3431,
  "Ġhost": 3432,
  "Ġobci": 3433,
  "ĠpriÅ¡iel": 3434,
  "istickÃ©": 3435,
  "Ġproduktov": 3436,
  "kÃ¡te": 3437,
  "Ġfunkcie": 3438,
  "ĠmateriÃ¡lu": 3439,
  "ĠaprÃŃl": 3440,
  "ĠprinÃ¡Å¡a": 3441,
  "Ġchat": 3442,
  "Ġlehot": 3443,
  "Ġnesm": 3444,
  "Ġpostih": 3445,
  "drÅ¾": 3446,
  "drÅ¾iav": 3447,
  "ĠspÃ¡j": 3448,
  "aÄįnÃ½m": 3449,
  "ĠminimÃ¡lne": 3450,
  "Ġnak": 3451,
  "Ġchceme": 3452,
  "Ġaugust": 3453,
  "Ġ!": 3454,
  "ivÃ¡": 3455,
  "enstva": 3456,
  "Ġdr": 3457,
  "Ġzmysle": 3458,
  "Ġodsek": 3459,
  "avejÅ¡ÃŃ": 3460,
  "gu": 3461,
  "avejÅ¡ÃŃm": 3462,
  "Ġzostav": 3463,
  "ĠÅĪou": 3464,
  "Ġiz": 3465,
  "Ġmichal": 3466,
  "ĠnÃ¡rok": 3467,
  "Ġchov": 3468,
  "Ġpozer": 3469,
  "Ġbe": 3470,
  "avejÅ¡ia": 3471,
  "ĠpleÅ¥": 3472,
  "Ġran": 3473,
  "ĠostatnÃ½ch": 3474,
  "ĠÃºvod": 3475,
  "ĠtÃ½Å¾dne": 3476,
  "oty": 3477,
  "Ã¡b": 3478,
  "ĠprÃ¡zdn": 3479,
  "lÃ©": 3480,
  "iÄįkÃ¡r": 3481,
  "avejÅ¡ou": 3482,
  "ĠÄ¾ad": 3483,
  "ĠÄ¾av": 3484,
  "iali": 3485,
  "Ġdvor": 3486,
  "Ġlig": 3487,
  "ĠnÃ¡hod": 3488,
  "Ġdu": 3489,
  "avejÅ¡ieho": 3490,
  "avejÅ¡iu": 3491,
  "avejÅ¡ÃŃmi": 3492,
  "bud": 3493,
  "Ġaktivity": 3494,
  "ect": 3495,
  "avejÅ¡iemu": 3496,
  "avejÅ¡ej": 3497,
  "avejÅ¡om": 3498,
  "ĠÅ¡Ã©f": 3499,
  "ĠsÃºvislosti": 3500,
  "ĠnemajÃº": 3501,
  "ĠnajvÃ½": 3502,
  "Ġskal": 3503,
  "ĠproblÃ©mov": 3504,
  "Ġregul": 3505,
  "tÃ³": 3506,
  "ĠvÃŃkend": 3507,
  "ph": 3508,
  "rk": 3509,
  "Å¡lite": 3510,
  "ĠprvÃ¡": 3511,
  "ĠstarostlivosÅ¥": 3512,
  "ĠmlÃ¡d": 3513,
  "ĠvÃ½razne": 3514,
  "Ġzarad": 3515,
  "Ġkvalitu": 3516,
  "ĠgÃ³l": 3517,
  "ĠsÃºper": 3518,
  "ĠpracovaÅ¥": 3519,
  "ĠguÄ¾": 3520,
  "Ġmikr": 3521,
  "ĠdcÃ©r": 3522,
  "oma": 3523,
  "Ġzeme": 3524,
  "ĠprevÃ¡dzkovateÄ¾": 3525,
  "ĠatÄı": 3526,
  "Ã¡tora": 3527,
  "eniam": 3528,
  "ĠeurÃ³pskej": 3529,
  "Ġvystav": 3530,
  "ĠÅ¥ah": 3531,
  "znak": 3532,
  "mys": 3533,
  "ĠostatnÃ©": 3534,
  "Ġrozdel": 3535,
  "ĠpoisÅ¥": 3536,
  "ifikov": 3537,
  "Ġprospe": 3538,
  "Ã¡le": 3539,
  "Ġspust": 3540,
  "iciach": 3541,
  "Ġtv": 3542,
  "Ġnoci": 3543,
  "Ġkonkur": 3544,
  "Ġturnaj": 3545,
  "Ġhrub": 3546,
  "aÄįnÃº": 3547,
  "ĠlÃ¡tky": 3548,
  "ĠjanuÃ¡r": 3549,
  "Ġservis": 3550,
  "Ġslovo": 3551,
  "Ġexistuje": 3552,
  "Ġnajprv": 3553,
  "Ã¡lnymi": 3554,
  "Ġabs": 3555,
  "Ġnajob": 3556,
  "Ġporiadku": 3557,
  "ĠvÃ´ÅĪ": 3558,
  "strÃ¡n": 3559,
  "ĠodstrÃ¡n": 3560,
  "ifikaÄį": 3561,
  "jeÅ¡": 3562,
  "Ġdopo": 3563,
  "nenÃ¡": 3564,
  "ĠuvoÄ¾": 3565,
  "Ġsepte": 3566,
  "Ġviete": 3567,
  "Ġnepopre": 3568,
  "itÃ©": 3569,
  "Ġsmerom": 3570,
  "ĠstraÅ¡": 3571,
  "Ġzase": 3572,
  "Ġprostredie": 3573,
  "Ġdoteraz": 3574,
  "ĠkvalitnÃ©": 3575,
  "Ġdrevo": 3576,
  "ver": 3577,
  "Ġbab": 3578,
  "ĠÄįar": 3579,
  "hod": 3580,
  "Ġnezabud": 3581,
  "ĠurÄįenÃ©": 3582,
  "Ġmikro": 3583,
  "Ġkata": 3584,
  "Ġrecept": 3585,
  "nov": 3586,
  "Ġjednom": 3587,
  "Ġrokmi": 3588,
  "Ġsama": 3589,
  "ĠslovÃ¡": 3590,
  "Ġfor": 3591,
  "avÃ¡": 3592,
  "ĠskutoÄįnosti": 3593,
  "Ġnamiest": 3594,
  "stal": 3595,
  "Ġponuky": 3596,
  "ĠpolÃŃc": 3597,
  "Ġmap": 3598,
  "ĠÅ¡tvrt": 3599,
  "ĠÅ¡tat": 3600,
  "Ġakcie": 3601,
  "ĠobyÄįaj": 3602,
  "ĠscÃ©n": 3603,
  "ĠtoÄ¾ko": 3604,
  "Ġruky": 3605,
  "Ġmost": 3606,
  "Ġta": 3607,
  "ĠniÅ¾Å¡ie": 3608,
  "up": 3609,
  "Ġlacn": 3610,
  "Ã¡lu": 3611,
  "ovskÃ½": 3612,
  "ĠplÃ¡Å¾": 3613,
  "Ã´Äį": 3614,
  "Ġkar": 3615,
  "Ġroman": 3616,
  "ĠpozornosÅ¥": 3617,
  "Ġvetr": 3618,
  "ĠbezpeÄįnost": 3619,
  "Ġznovu": 3620,
  "ÃŃky": 3621,
  "kuje": 3622,
  "vajÃºc": 3623,
  "Ġakoby": 3624,
  "Ġprodukt": 3625,
  "ĠÄįitateÄ¾": 3626,
  "Ġspre": 3627,
  "icou": 3628,
  "ĠmÃºze": 3629,
  "Ġzre": 3630,
  "Ġochot": 3631,
  "ĠmÃ¤k": 3632,
  "nÃŃky": 3633,
  "ĠzaÄįaÅ¥": 3634,
  "ovnÃŃkov": 3635,
  "Ġneskor": 3636,
  "ĠÅ¡tyri": 3637,
  "Ġvyvol": 3638,
  "Ġarchitekt": 3639,
  "ĠinteriÃ©r": 3640,
  "ĠÄ¾uÄıom": 3641,
  "Ġpravidelne": 3642,
  "Ġfin": 3643,
  "ĠvodiÄį": 3644,
  "Ġfar": 3645,
  "ĠÃºzemÃŃ": 3646,
  "ĠmomentÃ¡lne": 3647,
  "Ġjednou": 3648,
  "Ġdostali": 3649,
  "ĠobÄįas": 3650,
  "Ġpar": 3651,
  "Ġprizn": 3652,
  "Ġstrach": 3653,
  "ievajÃº": 3654,
  "ĠvÃ½zv": 3655,
  "Ġter": 3656,
  "Ġvieme": 3657,
  "ĠÅ¡pecif": 3658,
  "ĠpeÄį": 3659,
  "boo": 3660,
  "Ġmont": 3661,
  "Ġstalo": 3662,
  "enky": 3663,
  "aÄįnom": 3664,
  "Ġtrend": 3665,
  "Ġsvojimi": 3666,
  "ĠprÃŃpadoch": 3667,
  "Ġpremen": 3668,
  "ĠvyzerÃ¡": 3669,
  "Ġ2015": 3670,
  "Ġmetr": 3671,
  "Ġhodnoty": 3672,
  "ĠruÄį": 3673,
  "ĠtabuÄ¾": 3674,
  "ĠdÃ¡m": 3675,
  "Ġhol": 3676,
  "Ġzrejme": 3677,
  "ĠnÃ¡po": 3678,
  "ĠbudÃºcnosti": 3679,
  "ĠvÅ¡": 3680,
  "ĠaktÃŃv": 3681,
  "ĠradosÅ¥": 3682,
  "niz": 3683,
  "Ġuvid": 3684,
  "fajÄį": 3685,
  "Ġtras": 3686,
  "ĠveÄ¾kÃº": 3687,
  "ievaÅ¥": 3688,
  "ĠposlednÃ½ch": 3689,
  "ĠnajÄįast": 3690,
  "ĠkÃºpiÅ¥": 3691,
  "Ġzas": 3692,
  "Ġ22": 3693,
  "ĠschvÃ¡l": 3694,
  "Ġdisk": 3695,
  "Ġsviet": 3696,
  "ĠreÄį": 3697,
  "itelia": 3698,
  "mus": 3699,
  "nul": 3700,
  "ĠzniÅ¾": 3701,
  "Ã©z": 3702,
  "ĠÄįip": 3703,
  "Ġobal": 3704,
  "ĠvyuÅ¾i": 3705,
  "ja": 3706,
  "ievam": 3707,
  "Ġkrvi": 3708,
  "Ġnamiesto": 3709,
  "ĠÃºÄįely": 3710,
  "Ġkonci": 3711,
  "Ġ)": 3712,
  "ĠÅ¾iakov": 3713,
  "ari": 3714,
  "Ġcirkev": 3715,
  "Ġstiah": 3716,
  "ĠkrajÃŃn": 3717,
  "Ġtk": 3718,
  "ĠtakÃ½ch": 3719,
  "ĠÅĪu": 3720,
  "ĠzÃ¡pal": 3721,
  "slovensk": 3722,
  "ingu": 3723,
  "anou": 3724,
  "Ã¡tov": 3725,
  "enciu": 3726,
  "ĠstaÅ¥": 3727,
  "ĠvyrÃ¡b": 3728,
  "era": 3729,
  "Ġtatr": 3730,
  "Ġkoment": 3731,
  "Ġdosk": 3732,
  "ieval": 3733,
  "ĠpohÃ¡r": 3734,
  "ievali": 3735,
  "Ġbolesti": 3736,
  "ĠportÃ¡l": 3737,
  "Ġcestov": 3738,
  "Ġnado": 3739,
  "ĠspoloÄįne": 3740,
  "ĠzvÃ¤z": 3741,
  "Ġnebola": 3742,
  "ĠrekonÅ¡truk": 3743,
  "Ġzdravie": 3744,
  "Ġpekne": 3745,
  "Ã¡re": 3746,
  "ĠkoÅ¡": 3747,
  "Ã¡rom": 3748,
  "ĠsekÃºnd": 3749,
  "Ġrozhovor": 3750,
  "ĠprostredÃŃ": 3751,
  "ĠrieÅ¡enia": 3752,
  "Ġkvap": 3753,
  "Ġizby": 3754,
  "ĠoktÃ³": 3755,
  "Ġparl": 3756,
  "ĠmÃ´cÅ¥": 3757,
  "ĠzmeniÅ¥": 3758,
  "Ġvedec": 3759,
  "ĠÄįlenov": 3760,
  "Ġobjem": 3761,
  "ĠpripomÃŃn": 3762,
  "ĠkrÃ¡tko": 3763,
  "ĠslovenskÃ½": 3764,
  "liÄį": 3765,
  "Ġkysel": 3766,
  "ĠÄįiÅ¾e": 3767,
  "Ġkoleg": 3768,
  "Ġjozef": 3769,
  "Ġintegr": 3770,
  "Ġochrany": 3771,
  "ĠrakÃºs": 3772,
  "Ġpravdepodobne": 3773,
  "Ġzber": 3774,
  "ĠrodiÄįov": 3775,
  "ĠvianoÄį": 3776,
  "atÃ©r": 3777,
  "ĠinÃ½m": 3778,
  "Ġkozmet": 3779,
  "Ġpop": 3780,
  "Ġvlastnosti": 3781,
  "tÃŃ": 3782,
  "Ġchem": 3783,
  "Ġkrist": 3784,
  "Ġnovem": 3785,
  "Ġtesn": 3786,
  "ievame": 3787,
  "ovacÃŃ": 3788,
  "zÃŃ": 3789,
  "ĠodpoveÄı": 3790,
  "Ġnav": 3791,
  "ievajÃºc": 3792,
  "Ġfond": 3793,
  "Ġvojensk": 3794,
  "Ġpodrob": 3795,
  "Ġalkohol": 3796,
  "Ġzm": 3797,
  "Ġph": 3798,
  "vaj": 3799,
  "Ġduchov": 3800,
  "Ġkandid": 3801,
  "nÃŃm": 3802,
  "ĠsnÃŃm": 3803,
  "ĠnÃ¡boÅ¾": 3804,
  "ĠpoÅ¾ad": 3805,
  "Ġspomen": 3806,
  "Ġtabl": 3807,
  "ĠvÃ½nimoÄį": 3808,
  "Ġer": 3809,
  "ĠÅ¡tart": 3810,
  "oden": 3811,
  "Ġ2014": 3812,
  "ĠohÄ¾ad": 3813,
  "ĠtrenÄį": 3814,
  "Ġforme": 3815,
  "Ġsnah": 3816,
  "isto": 3817,
  "Ġpobyt": 3818,
  "ievala": 3819,
  "ievate": 3820,
  "ĠakÃº": 3821,
  "ĠprechÃ¡dz": 3822,
  "Ã¡dz": 3823,
  "Ġlod": 3824,
  "Ġvied": 3825,
  "Ġsol": 3826,
  "ĠniektorÃŃ": 3827,
  "Ã¡vanÃŃ": 3828,
  "Ġznova": 3829,
  "ĠminerÃ¡l": 3830,
  "stvÃ¡m": 3831,
  "Ġpravda": 3832,
  "zn": 3833,
  "Ġspozn": 3834,
  "ĠdÅĪoch": 3835,
  "atelia": 3836,
  "ĠoÄįi": 3837,
  "ĠmnohÃ©": 3838,
  "ĠhraÅ¥": 3839,
  "Ġcivil": 3840,
  "Ġbystr": 3841,
  "aÄįka": 3842,
  "Ġsprievod": 3843,
  "Ġnea": 3844,
  "Ġnemali": 3845,
  "Ġubytovanie": 3846,
  "ck": 3847,
  "Ġneb": 3848,
  "ĠÃºst": 3849,
  "Ġautobus": 3850,
  "Ġihr": 3851,
  "ĠvÃ½let": 3852,
  "eut": 3853,
  "ĠsprÃ¡vu": 3854,
  "Å¡kod": 3855,
  "ĠpoÅ¡kod": 3856,
  "Ġprevz": 3857,
  "Ġpodiel": 3858,
  "Ġzamestnancov": 3859,
  "Ġbeh": 3860,
  "ĠpoÅ¾iadavky": 3861,
  "Ġfirma": 3862,
  "Ġmetrov": 3863,
  "ĠkÃ³d": 3864,
  "ĠniekoÄ¾kÃ½ch": 3865,
  "ievalo": 3866,
  "bÃ¡ch": 3867,
  "nicu": 3868,
  "ievaj": 3869,
  "ĠnakoÄ¾ko": 3870,
  "Ġpriemysel": 3871,
  "ievajte": 3872,
  "ĠnajskÃ´r": 3873,
  "ĠtradÃŃ": 3874,
  "Ġhra": 3875,
  "ievaÅ¡": 3876,
  "ievajme": 3877,
  "Ġkonca": 3878,
  "Ġzastup": 3879,
  "Ġdigit": 3880,
  "ĠtroÅ¡": 3881,
  "Ġsign": 3882,
  "ĠmnohÃŃ": 3883,
  "ĠurÄįenÃ½": 3884,
  "Ã¡ka": 3885,
  "ĠÅ¾ien": 3886,
  "Ġnariad": 3887,
  "Ġalbum": 3888,
  "ĠzamestnÃ¡": 3889,
  "Ġzvierat": 3890,
  "Ġhokej": 3891,
  "ĠtakÃ¡": 3892,
  "Ġvyrovn": 3893,
  "Ġformou": 3894,
  "Ġbel": 3895,
  "emu": 3896,
  "Ġpotenci": 3897,
  "Ġdier": 3898,
  "ĠÅ¾ena": 3899,
  "ĠprihlÃ¡s": 3900,
  "ĠfÃ¡z": 3901,
  "ĠnemÃ¡m": 3902,
  "Äįan": 3903,
  "Ġspoluprac": 3904,
  "ĠoznÃ¡m": 3905,
  "ĠkaÅ¾doden": 3906,
  "Ġvodo": 3907,
  "Ġjuh": 3908,
  "Ġpomoh": 3909,
  "Ġvzniku": 3910,
  "ĠvyrobenÃ©": 3911,
  "anliv": 3912,
  "vajte": 3913,
  "Ġspis": 3914,
  "ĠnajlepÅ¡ÃŃ": 3915,
  "niac": 3916,
  "Ġzvon": 3917,
  "ĠotvÃ¡r": 3918,
  "Ġpredpisov": 3919,
  "Ġdopad": 3920,
  "ovanom": 3921,
  "Ġmarc": 3922,
  "Ġuz": 3923,
  "ĠjednÃ¡": 3924,
  "Ġprenos": 3925,
  "ĠextrÃ©m": 3926,
  "ĠtakÃº": 3927,
  "Ġfilt": 3928,
  "Ã¤t": 3929,
  "ĠhlÃ¡s": 3930,
  "idla": 3931,
  "ĠmaÄį": 3932,
  "acÃŃ": 3933,
  "ĠvzÃ¡jom": 3934,
  "izujÃº": 3935,
  "ĠabsolÃºt": 3936,
  "Ġkomfort": 3937,
  "br": 3938,
  "ĠeurÃ³pe": 3939,
  "Ġpodlah": 3940,
  "ĠlÃŃst": 3941,
  "Äıalej": 3942,
  "ĠmladÃ½ch": 3943,
  "ĠvÃ½chov": 3944,
  "Ġpatria": 3945,
  "Ġzhod": 3946,
  "ĠzÃ¡kladnÃ©": 3947,
  "Ġdotk": 3948,
  "Ġdel": 3949,
  "ĠpÃ½t": 3950,
  "ĠÅ¥aÅ¾kÃ©": 3951,
  "ĠhÄ¾adiska": 3952,
  "adiel": 3953,
  "Ġvedie": 3954,
  "ĠÃºlohu": 3955,
  "ft": 3956,
  "ĠjÃºl": 3957,
  "Ġkapac": 3958,
  "ĠchvÃŃl": 3959,
  "ĠchvÃŃÄ¾u": 3960,
  "Ġtrval": 3961,
  "ĠkresÅ¥an": 3962,
  "ÃŃna": 3963,
  "Ġdosah": 3964,
  "Ġchrbt": 3965,
  "Ġpopr": 3966,
  "Ġuhl": 3967,
  "ĠdodÃ¡vateÄ¾": 3968,
  "ĠjasnÃ©": 3969,
  "ĠmalÃ½": 3970,
  "Ġponuke": 3971,
  "Ġobo": 3972,
  "ĠÅ¾el": 3973,
  "ĠpÃ¤t": 3974,
  "ovka": 3975,
  "aÄįnÃ½mi": 3976,
  "Ġona": 3977,
  "ĠÃºÄįinky": 3978,
  "Ã¡lni": 3979,
  "Ġotec": 3980,
  "Ġlep": 3981,
  "Ġzaober": 3982,
  "ĠvlÃ¡k": 3983,
  "Ã¡tu": 3984,
  "Ġzran": 3985,
  "Ġadresu": 3986,
  "ĠobyvateÄ¾ov": 3987,
  "ĠnajdÃ´": 3988,
  "ĠjuÅ¾": 3989,
  "ĠsamosprÃ¡v": 3990,
  "ĠprÃŃstroj": 3991,
  "ĠmateriÃ¡lov": 3992,
  "Ġvzduchu": 3993,
  "ĠmusÃŃme": 3994,
  "Å¾enie": 3995,
  "Ġsneh": 3996,
  "Ġdekor": 3997,
  "ĠprenÃ¡": 3998,
  "Ä¾ad": 3999,
  "ino": 4000,
  "klad": 4001,
  "ĠvÃ½sledok": 4002,
  "tre": 4003,
  "ĠnezÃ¡vis": 4004,
  "ĠnachÃ¡dz": 4005,
  "Ġdane": 4006,
  "Ġmast": 4007,
  "ĠnedÃ¡": 4008,
  "Ġkolekt": 4009,
  "lat": 4010,
  "Ġpeter": 4011,
  "Ġnerv": 4012,
  "ĠvyplÃ½": 4013,
  "ÂŃ": 4014,
  "Ġizol": 4015,
  "niach": 4016,
  "Ã¡ni": 4017,
  "ĠveÄ¾kosÅ¥": 4018,
  "istom": 4019,
  "Ġjadr": 4020,
  "ĠprincÃŃp": 4021,
  "dl": 4022,
  "Ġodohr": 4023,
  "ĠbazÃ©n": 4024,
  "acÃŃch": 4025,
  "ÅĪujeme": 4026,
  "ĠaktuÃ¡lne": 4027,
  "ĠjednotlivÃ©": 4028,
  "ujÃºca": 4029,
  "Ġboha": 4030,
  "ys": 4031,
  "ĠÃºradu": 4032,
  "Ġreg": 4033,
  "ĠvenovaÅ¥": 4034,
  "ĠruÅ¡": 4035,
  "izoval": 4036,
  "Ġperfekt": 4037,
  "Ġobet": 4038,
  "Ãºp": 4039,
  "ivÃ½": 4040,
  "ĠnÃ¡mest": 4041,
  "Ġkriv": 4042,
  "Ġklin": 4043,
  "Ã¡vaÄį": 4044,
  "ĠdieÅ¥aÅ¥a": 4045,
  "Ġcentra": 4046,
  "Ġteles": 4047,
  "Ġmer": 4048,
  "Ġsto": 4049,
  "ĠdodÃ¡v": 4050,
  "ĠmÃ¡ri": 4051,
  "th": 4052,
  "idlo": 4053,
  "ovskÃ©ho": 4054,
  "ĠpoznÃ¡m": 4055,
  "ĠkrÃ¡Ä¾ov": 4056,
  "Ġoproti": 4057,
  "Ġmojej": 4058,
  "ovito": 4059,
  "Å¡ÃŃmi": 4060,
  "Ġprispie": 4061,
  "Ġoslav": 4062,
  "ĠpriÅ¡li": 4063,
  "ĠktorÃ©mu": 4064,
  "Ġprofil": 4065,
  "Ġoboch": 4066,
  "izovali": 4067,
  "Ġpodstate": 4068,
  "Ġcirk": 4069,
  "Ġfunguje": 4070,
  "Ġtrnav": 4071,
  "Ġvybud": 4072,
  "Ġpomaly": 4073,
  "Ġodber": 4074,
  "Ġkost": 4075,
  "vajme": 4076,
  "ĠvyuÅ¾ÃŃva": 4077,
  "Äįiansk": 4078,
  "Ġman": 4079,
  "ĠpodobnÃ©": 4080,
  "Ġvyp": 4081,
  "Ġneboli": 4082,
  "Ġklad": 4083,
  "ĠvaÅ¡a": 4084,
  "ĠnaÄıalej": 4085,
  "Ġsen": 4086,
  "kovan": 4087,
  "Ġbar": 4088,
  "Ãºru": 4089,
  "Ġprechod": 4090,
  "Ġevanjel": 4091,
  "ĠorganizÃ¡cie": 4092,
  "braÅ¥": 4093,
  "ĠÄįakÃ¡": 4094,
  "Ġktorou": 4095,
  "Ġdefin": 4096,
  "Ġzbav": 4097,
  "budÃº": 4098,
  "Ġsestr": 4099,
  "ĠnemoÅ¾": 4100,
  "encov": 4101,
  "ĠÄįerp": 4102,
  "Ġelegant": 4103,
  "bri": 4104,
  "uk": 4105,
  "Ġpani": 4106,
  "Ã¡rstva": 4107,
  "Ġbav": 4108,
  "iak": 4109,
  "ĠslovenskÃ¡": 4110,
  "Ġsexu": 4111,
  "ĠmuÅ¾ov": 4112,
  "Ġzv": 4113,
  "Ġkoncep": 4114,
  "aÄįnou": 4115,
  "ĠnemusÃŃ": 4116,
  "ĠknÃŃh": 4117,
  "Ġstave": 4118,
  "iÃ¡lne": 4119,
  "ozof": 4120,
  "ĠvÃ½robky": 4121,
  "Ġcentrum": 4122,
  "kresl": 4123,
  "Ġpriestoru": 4124,
  "Ġvypo": 4125,
  "Ġbibl": 4126,
  "Ġobl": 4127,
  "ĠdÃ¡va": 4128,
  "ĠmoÄį": 4129,
  "lan": 4130,
  "ĠrodiÄįia": 4131,
  "Ġmohlo": 4132,
  "for": 4133,
  "Ġstres": 4134,
  "Ġni": 4135,
  "Ġdvere": 4136,
  "Ġvyhov": 4137,
  "Ġluxus": 4138,
  "Ġusporiad": 4139,
  "razu": 4140,
  "izujÃºc": 4141,
  "Ġgum": 4142,
  "ĠÅ¡kola": 4143,
  "Ġdolno": 4144,
  "ĠnachÃ¡dzajÃº": 4145,
  "kovanie": 4146,
  "ĠÃºtok": 4147,
  "Ġvrchol": 4148,
  "Ġha": 4149,
  "cion": 4150,
  "ĠeurÃ³py": 4151,
  "ĠobÃ½": 4152,
  "Ġkamer": 4153,
  "ĠtÃ½mi": 4154,
  "Ġblaho": 4155,
  "Äįte": 4156,
  "ĠnaÅ¡i": 4157,
  "dej": 4158,
  "ĠzÃ¡chran": 4159,
  "ĠprÃŃchod": 4160,
  "ĠlÃºÄį": 4161,
  "lep": 4162,
  "Ġnahr": 4163,
  "Ġkg": 4164,
  "Ġzmes": 4165,
  "ĠzniÄį": 4166,
  "Ġkliknite": 4167,
  "Ġrozhodnutie": 4168,
  "Ġprijat": 4169,
  "Ġpovz": 4170,
  "izovala": 4171,
  "Ġpovedala": 4172,
  "ĠfÄ¾aÅ¡": 4173,
  "ĠvzÅ¥ahu": 4174,
  "ÃŃne": 4175,
  "Ġzmysel": 4176,
  "ĠokamÅ¾ite": 4177,
  "zniv": 4178,
  "Ġevid": 4179,
  "ĠnazÃ½v": 4180,
  "ickejÅ¡ie": 4181,
  "Ġvozidla": 4182,
  "Ġzap": 4183,
  "Ġoni": 4184,
  "Ġneutr": 4185,
  "ĠsÅ¥aÅ¾": 4186,
  "Ġzmier": 4187,
  "eno": 4188,
  "Ġor": 4189,
  "Ġkonania": 4190,
  "Ġroh": 4191,
  "mom": 4192,
  "ĠkonkrÃ©tne": 4193,
  "ĠchÃ¡p": 4194,
  "ĠÄįern": 4195,
  "ĠdokonÄį": 4196,
  "Ġsiete": 4197,
  "Ġlokal": 4198,
  "inky": 4199,
  "Ġstuden": 4200,
  "Ġpotrebuje": 4201,
  "ĠzÃ¡pis": 4202,
  "ovanÃ½mi": 4203,
  "ĠprispÃ´sob": 4204,
  "Ġnemal": 4205,
  "Ġep": 4206,
  "ĠprvÃ½ch": 4207,
  "Ġvlasov": 4208,
  "Ġhrdin": 4209,
  "ajÅ¡ie": 4210,
  "Ġsurov": 4211,
  "Ġkonzum": 4212,
  "ĠdlhÃ©": 4213,
  "Ġpanel": 4214,
  "kt": 4215,
  "ĠzÃ¡Å¾it": 4216,
  "ĠodporÃºÄįame": 4217,
  "ĠprvÃ©ho": 4218,
  "ĠÅ¡piÄį": 4219,
  "ĠÃºroveÅĪ": 4220,
  "ĠpredloÅ¾": 4221,
  "Ġhan": 4222,
  "ĠhÄºb": 4223,
  "Ġhe": 4224,
  "Ġprepoj": 4225,
  "ĠtrÃ©ner": 4226,
  "skejÅ¡ie": 4227,
  "ÃŃkom": 4228,
  "Ġspor": 4229,
  "Ġproblem": 4230,
  "Ġsused": 4231,
  "Ġvodu": 4232,
  "ĠkÃºt": 4233,
  "ovanou": 4234,
  "ÃŃnu": 4235,
  "ionist": 4236,
  "Ġri": 4237,
  "ĠsuÅ¡": 4238,
  "Ġprah": 4239,
  "orod": 4240,
  "Ġzisk": 4241,
  "Ġ198": 4242,
  "Ġsobotu": 4243,
  "Ã¡j": 4244,
  "Ġzauja": 4245,
  "Ġskupina": 4246,
  "Ġ2013": 4247,
  "Ġznak": 4248,
  "ĠstÃ¡va": 4249,
  "Ġvodou": 4250,
  "Ġtip": 4251,
  "ĠrÃ¡dio": 4252,
  "ĠspoluprÃ¡ci": 4253,
  "Ġmotiv": 4254,
  "Ġpie": 4255,
  "Ġpies": 4256,
  "aÄįnÃ©mu": 4257,
  "avou": 4258,
  "Ġparlament": 4259,
  "kÃ¡t": 4260,
  "Ġvyprac": 4261,
  "ĠzaÄįne": 4262,
  "iava": 4263,
  "ĠspojenÃ©": 4264,
  "Ġsud": 4265,
  "ĠpoÄįtu": 4266,
  "ĠnoÄį": 4267,
  "Ġrozsahu": 4268,
  "izujeme": 4269,
  "ĠbatÃ©rie": 4270,
  "Ġmimoriadne": 4271,
  "Ġklim": 4272,
  "ieÄ¾": 4273,
  "Ġjan": 4274,
  "ĠideÃ¡lne": 4275,
  "prostred": 4276,
  "ĠÄįÃŃtaÅ¥": 4277,
  "Ġstane": 4278,
  "Ġ80": 4279,
  "Ġdome": 4280,
  "ĠstrÃ¡v": 4281,
  "aÄįnÃŃ": 4282,
  "Ġkoren": 4283,
  "ÃŃnsk": 4284,
  "Ġzaklad": 4285,
  "Ġvraj": 4286,
  "ĠvÃ½stup": 4287,
  "istu": 4288,
  "aÄįa": 4289,
  "ĠzvlÃ¡Å¡t": 4290,
  "ĠlÃ¡sky": 4291,
  "nutÃ½ch": 4292,
  "Ġchoro": 4293,
  "ĠmusieÅ¥": 4294,
  "Ġgen": 4295,
  "ĠdlhÅ¡ie": 4296,
  "ĠmÅķ": 4297,
  "ĠÄįasopis": 4298,
  "ĠoblasÅ¥": 4299,
  "Ġml": 4300,
  "izovalo": 4301,
  "ĠvhodnÃ¡": 4302,
  "Ġobdobia": 4303,
  "ĠnadÅ¡": 4304,
  "sob": 4305,
  "ĠodstÃºp": 4306,
  "Ġcook": 4307,
  "Ġfarba": 4308,
  "ĠmÃ´jho": 4309,
  "avÃ½ch": 4310,
  "izujem": 4311,
  "Ġ23": 4312,
  "rostred": 4313,
  "ĠareÃ¡l": 4314,
  "Ġultra": 4315,
  "ĠkalendÃ¡r": 4316,
  "kujÃº": 4317,
  "ÅĪujem": 4318,
  "iment": 4319,
  "izujete": 4320,
  "ÅĪom": 4321,
  "Ġtajom": 4322,
  "stane": 4323,
  "Ġcestou": 4324,
  "ĠlepÅ¡": 4325,
  "Ġmul": 4326,
  "icami": 4327,
  "izuj": 4328,
  "izujte": 4329,
  "ĠvÅ¡ade": 4330,
  "izujeÅ¡": 4331,
  "ĠprÃŃleÅ¾itosti": 4332,
  "izujme": 4333,
  "ĠzvyÄįaj": 4334,
  "ĠzÃ¡ruk": 4335,
  "Ã¡rensk": 4336,
  "Ġdozved": 4337,
  "ĠhrÃ¡Äįov": 4338,
  "Ġzlato": 4339,
  "78": 4340,
  "Ġ90": 4341,
  "su": 4342,
  "Ġpropag": 4343,
  "Ġmajstrov": 4344,
  "Ġdoby": 4345,
  "Ġprekon": 4346,
  "Ġnajbez": 4347,
  "Ġ28": 4348,
  "Ġstarostlivosti": 4349,
  "nÃŃckych": 4350,
  "ĠzruÅ¡iÅ¥": 4351,
  "Ġadministr": 4352,
  "Ġulici": 4353,
  "Ġproste": 4354,
  "istickÃ½ch": 4355,
  "Ġdynam": 4356,
  "ĠdÃ´kaz": 4357,
  "ĠdajÃº": 4358,
  "Ġuzavret": 4359,
  "ĠprednÃ¡Å¡": 4360,
  "Ġinici": 4361,
  "ieÄį": 4362,
  "Ġtakisto": 4363,
  "Ġprem": 4364,
  "ovacieho": 4365,
  "ĠistÃ©": 4366,
  "Ġapo": 4367,
  "ele": 4368,
  "abil": 4369,
  "Ġseri": 4370,
  "ĠpeÅĪa": 4371,
  "Ġprevod": 4372,
  "ĠÅ¾iadosti": 4373,
  "koval": 4374,
  "Ġcitliv": 4375,
  "Ġbyl": 4376,
  "Ġochrane": 4377,
  "Ġram": 4378,
  "Ġhlavy": 4379,
  "ĠumÃ½": 4380,
  "exist": 4381,
  "Ġskon": 4382,
  "Ġii": 4383,
  "ness": 4384,
  "Ġpozv": 4385,
  "Ġohroz": 4386,
  "Ġdruhom": 4387,
  "ĠtÃ¡bor": 4388,
  "ĠprÃºd": 4389,
  "Ġzmene": 4390,
  "ĠoznÃ¡mi": 4391,
  "ĠmaÄ¾": 4392,
  "ogÃ©n": 4393,
  "Ġhub": 4394,
  "Ġgr": 4395,
  "Ġintelig": 4396,
  "pÄºÅĪa": 4397,
  "Ġdn": 4398,
  "2018": 4399,
  "Ġstavu": 4400,
  "redak": 4401,
  "ĠvÃ¤ÄįÅ¡ie": 4402,
  "ĠodliÅ¡": 4403,
  "Ġodvol": 4404,
  "enka": 4405,
  "Ġface": 4406,
  "ĠlÃ¡tok": 4407,
  "ĠÅ¾iac": 4408,
  "ovskÃ©": 4409,
  "ĠpeÅĪazÃŃ": 4410,
  "Ġkruh": 4411,
  "menej": 4412,
  "ĠfebruÃ¡r": 4413,
  "nenÃŃ": 4414,
  "hnoj": 4415,
  "ĠmalÃ½ch": 4416,
  "Ġvami": 4417,
  "vet": 4418,
  "ĠsledovaÅ¥": 4419,
  "Ġreag": 4420,
  "Ġdostala": 4421,
  "Ġmraz": 4422,
  "ĠmiliÃ³nov": 4423,
  "Ġsprostred": 4424,
  "ĠmesaÄį": 4425,
  "ÃºÅ¥": 4426,
  "Ġ:-": 4427,
  "Ġsch": 4428,
  "Ġcentre": 4429,
  "Ġhotov": 4430,
  "Ġand": 4431,
  "Ġporuch": 4432,
  "Ġfo": 4433,
  "ĠsociÃ¡lnych": 4434,
  "Ġniekde": 4435,
  "ĠnajdÃ´leÅ¾it": 4436,
  "ĠdÃ´sledku": 4437,
  "ĠbÃºr": 4438,
  "Ġzasl": 4439,
  "ÅĪovali": 4440,
  "ĠÅ¡tÃºdia": 4441,
  "Ġriek": 4442,
  "mnoho": 4443,
  "keho": 4444,
  "Ġzdrojov": 4445,
  "ĠvrÃ¡tiÅ¥": 4446,
  "ĠkultÃºry": 4447,
  "horÅ¡": 4448,
  "Ġth": 4449,
  "medz": 4450,
  "ĠstrÃ¡Å¾": 4451,
  "itÃŃv": 4452,
  "reb": 4453,
  "Ġmarket": 4454,
  "ĠvyuÄį": 4455,
  "ĠunikÃ¡t": 4456,
  "ĠÅ¾iadn": 4457,
  "ĠÅ¾iadny": 4458,
  "Ġmuseli": 4459,
  "ĠveÄ¾kosti": 4460,
  "Ġmono": 4461,
  "dÃ´vod": 4462,
  "ĠrÃºr": 4463,
  "18": 4464,
  "ng": 4465,
  "ĠblÃŃzkosti": 4466,
  "ĠvyÅ¡e": 4467,
  "kvalit": 4468,
  "avÃ½m": 4469,
  "ĠaplikÃ¡cie": 4470,
  "Ġodmen": 4471,
  "Ġsily": 4472,
  "ÅĪujÃºc": 4473,
  "Ġhned": 4474,
  "ĠzbytoÄį": 4475,
  "ĠsprÃŃ": 4476,
  "ĠpÃ´Å¾iÄį": 4477,
  "ĠÅ¾id": 4478,
  "Ġfotografie": 4479,
  "Ġtop": 4480,
  "Ġsrdce": 4481,
  "Ġgram": 4482,
  "ĠpokoÅ¾ku": 4483,
  "avÃŃ": 4484,
  "Ġip": 4485,
  "Ġgoog": 4486,
  "Ġ70": 4487,
  "iest": 4488,
  "Ġzdar": 4489,
  "Ġblok": 4490,
  "yl": 4491,
  "ĠzdÃ¡": 4492,
  "anÃ½mi": 4493,
  "Ġmonitor": 4494,
  "Ġnever": 4495,
  "Ġdece": 4496,
  "Ġschod": 4497,
  "ĠÅ¾iÅ¥": 4498,
  "ĠanalÃ½z": 4499,
  "Ġrozhodli": 4500,
  "adlÃ¡": 4501,
  "ĠstrÃ¡nku": 4502,
  "Ã¡torov": 4503,
  "ĠpÃ´jd": 4504,
  "var": 4505,
  "ÅĪoval": 4506,
  "ĠvyrieÅ¡": 4507,
  "istami": 4508,
  "Ġkre": 4509,
  "Ġseptembra": 4510,
  "Ġkoniec": 4511,
  "Ġwor": 4512,
  "ÃºvaÅ¥": 4513,
  "skejÅ¡ÃŃ": 4514,
  "ĠdvanÃ¡sÅ¥": 4515,
  "liek": 4516,
  "Ã´ver": 4517,
  "darmo": 4518,
  "skejÅ¡ÃŃch": 4519,
  "skejÅ¡ieho": 4520,
  "skejÅ¡ej": 4521,
  "skejÅ¡iu": 4522,
  "skejÅ¡ia": 4523,
  "skejÅ¡ou": 4524,
  "skejÅ¡ÃŃm": 4525,
  "skejÅ¡ÃŃmi": 4526,
  "Ġregion": 4527,
  "skejÅ¡om": 4528,
  "skejÅ¡iemu": 4529,
  "orom": 4530,
  "ovskej": 4531,
  "laÄį": 4532,
  "Ġzahr": 4533,
  "ĠdÃ´vodov": 4534,
  "Ġemail": 4535,
  "ĠÅ¡paniel": 4536,
  "Ã¡roch": 4537,
  "Ġdistrib": 4538,
  "ler": 4539,
  "kovali": 4540,
  "ĠnajÄįastejÅ¡ie": 4541,
  "Ġoh": 4542,
  "ĠnutnÃ©": 4543,
  "nacion": 4544,
  "ilom": 4545,
  "Ġteplo": 4546,
  "ĠzamestnÃ¡vateÄ¾": 4547,
  "ĠdostatoÄį": 4548,
  "Ġzaist": 4549,
  "ĠposlednÃ©": 4550,
  "ĠdeÅ¥om": 4551,
  "Ġnajkr": 4552,
  "ĠpokraÄįovaÅ¥": 4553,
  "ÃºvajÃº": 4554,
  "Ġdoslov": 4555,
  "ĠpoÄįÃº": 4556,
  "Ġof": 4557,
  "Ġosud": 4558,
  "Ġautomaticky": 4559,
  "op": 4560,
  "15": 4561,
  "ĠzÃ¡mer": 4562,
  "ĠmaximÃ¡lne": 4563,
  "ĠpracovnÃ½ch": 4564,
  "Ġkrajine": 4565,
  "kovala": 4566,
  "Ġarch": 4567,
  "Ġkoncentr": 4568,
  "ĠzÃ¡kladnÃ½ch": 4569,
  "kujÃºc": 4570,
  "kujeme": 4571,
  "Ġsadz": 4572,
  "ĠdÃ¡tum": 4573,
  "ĠtvorÃŃ": 4574,
  "rozum": 4575,
  "racion": 4576,
  "nÃŃkovi": 4577,
  "iskom": 4578,
  "ĠhÃ¡d": 4579,
  "Ġhar": 4580,
  "Ġkomor": 4581,
  "Ġneodo": 4582,
  "Ġmusel": 4583,
  "Ġamerik": 4584,
  "Ġnew": 4585,
  "dla": 4586,
  "Ġzjav": 4587,
  "ĠzabezpeÄįiÅ¥": 4588,
  "Ġzmenu": 4589,
  "ovskÃ¡": 4590,
  "Ġca": 4591,
  "Ġsenz": 4592,
  "Ġaudi": 4593,
  "Ġuviedol": 4594,
  "ĠneprÃŃjem": 4595,
  "ĠnÃ¡rodnej": 4596,
  "Ġchyt": 4597,
  "Ġplno": 4598,
  "ĠoktÃ³bra": 4599,
  "Ġmieru": 4600,
  "gra": 4601,
  "Ġsveto": 4602,
  "Ġmiestnosti": 4603,
  "go": 4604,
  "Ġvysokej": 4605,
  "istickÃ½": 4606,
  "ĠleÅ¾": 4607,
  "inat": 4608,
  "Ġas": 4609,
  "anec": 4610,
  "ĠdosiahnuÅ¥": 4611,
  "ĠinÃ½mi": 4612,
  "Ġstala": 4613,
  "Ġcelkovo": 4614,
  "Ġfakult": 4615,
  "ĠvÃ½roÄį": 4616,
  "Ġproblemat": 4617,
  "ĠtroÅ¡ku": 4618,
  "ĠvÃ½sledkom": 4619,
  "iskÃ¡": 4620,
  "ĠnemusÃŃte": 4621,
  "ĠakÃ½m": 4622,
  "Ġfi": 4623,
  "Ġvlastnej": 4624,
  "ĠnedeÄ¾u": 4625,
  "ĠdruhÃ¡": 4626,
  "Ġpetr": 4627,
  "ĠsÃºstred": 4628,
  "Ãºvame": 4629,
  "Ġ26": 4630,
  "ĠpÃ¡Äįi": 4631,
  "Ġrelax": 4632,
  "Ġpochyb": 4633,
  "ÄįÃŃm": 4634,
  "ĠmoÅ¾nostÃŃ": 4635,
  "ĠtrÃ¡p": 4636,
  "Ã¡rmi": 4637,
  "ell": 4638,
  "ĠznenÃŃ": 4639,
  "Ġ27": 4640,
  "Ġpodujatia": 4641,
  "ickejÅ¡ÃŃ": 4642,
  "Ġprej": 4643,
  "ĠnÃ¡stup": 4644,
  "ovacom": 4645,
  "Ġrez": 4646,
  "Ġteras": 4647,
  "Ġsekund": 4648,
  "Ġdeje": 4649,
  "nohospodÃ¡r": 4650,
  "Ġrozhodol": 4651,
  "Ġvyskyt": 4652,
  "Ġsh": 4653,
  "any": 4654,
  "Ġlesk": 4655,
  "ĠzahÅķÅĪ": 4656,
  "ĠkÅĪaz": 4657,
  "ĠrozvÃŃj": 4658,
  "nÃŃctvo": 4659,
  "ĠjednoznaÄį": 4660,
  "stÃ¡vajÃº": 4661,
  "ĠveÄ¾kÃ½ch": 4662,
  "Ã¡vac": 4663,
  "ĠrieÅ¡iÅ¥": 4664,
  "Ġpres": 4665,
  "Ġvklad": 4666,
  "ovskÃ½ch": 4667,
  "ĠcelÃ¡": 4668,
  "Ġkolekc": 4669,
  "Ġhore": 4670,
  "ickejÅ¡ÃŃch": 4671,
  "Ġstrech": 4672,
  "encii": 4673,
  "kujete": 4674,
  "Ġciel": 4675,
  "Ġopust": 4676,
  "ĠÅ¡ik": 4677,
  "ickejÅ¡ÃŃm": 4678,
  "ickejÅ¡ia": 4679,
  "Ġrol": 4680,
  "katolÃŃc": 4681,
  "ĠsÃºÄįasne": 4682,
  "ickejÅ¡iu": 4683,
  "ickejÅ¡ieho": 4684,
  "ickejÅ¡ou": 4685,
  "ickejÅ¡ej": 4686,
  "ickejÅ¡om": 4687,
  "ickejÅ¡iemu": 4688,
  "ickejÅ¡ÃŃmi": 4689,
  "ĠotÃ¡zku": 4690,
  "ĠmÃ¡Å¡": 4691,
  "Ġpomoci": 4692,
  "lenie": 4693,
  "kujte": 4694,
  "kujem": 4695,
  "kuj": 4696,
  "Ġbavln": 4697,
  "Ġber": 4698,
  "Ġkal": 4699,
  "ĠpouÅ¾ÃŃvajÃº": 4700,
  "Ġ194": 4701,
  "Ġ2012": 4702,
  "kosÅ¥": 4703,
  "Ġtypy": 4704,
  "nÃŃckej": 4705,
  "Ġvyna": 4706,
  "ĠkoÄį": 4707,
  "Ġneuver": 4708,
  "Ġobsahu": 4709,
  "ĠjÃºna": 4710,
  "gr": 4711,
  "ĠvÃ½roby": 4712,
  "iemu": 4713,
  "ĠmÃ¡ja": 4714,
  "Ġciev": 4715,
  "Ġkapel": 4716,
  "Ġjav": 4717,
  "ĠÄįap": 4718,
  "ĠsituÃ¡cie": 4719,
  "ovec": 4720,
  "Ġled": 4721,
  "Ġhotela": 4722,
  "ĠvyÅ¾aduje": 4723,
  "kovalo": 4724,
  "ĠnÃ¡j": 4725,
  "Ġuply": 4726,
  "fÃºk": 4727,
  "avÃº": 4728,
  "kujeÅ¡": 4729,
  "ĠtakÃ½to": 4730,
  "entov": 4731,
  "ĠprichÃ¡dza": 4732,
  "kujme": 4733,
  "Ġprieskum": 4734,
  "ĠprÃŃrody": 4735,
  "ĠpredstaviÅ¥": 4736,
  "Ġnovembra": 4737,
  "Ġnemu": 4738,
  "Ġsmrti": 4739,
  "ĠalternatÃŃv": 4740,
  "Ġdomin": 4741,
  "Ġsprch": 4742,
  "Ġmask": 4743,
  "Ġdispon": 4744,
  "ovacej": 4745,
  "Ġnein": 4746,
  "Ġnapokon": 4747,
  "ĠsprÃ¡va": 4748,
  "Ġvopred": 4749,
  "ĠschopnosÅ¥": 4750,
  "ĠroÄįnÃŃk": 4751,
  "Ġklubu": 4752,
  "Ġcitr": 4753,
  "Ġvad": 4754,
  "ĠvÃ½robu": 4755,
  "Ġprostriedky": 4756,
  "jedn": 4757,
  "ÃŃny": 4758,
  "ĠÅ¡pecializ": 4759,
  "izmom": 4760,
  "Ġdokt": 4761,
  "ĠzruÄį": 4762,
  "Ġbr": 4763,
  "ĠbliÅ¾": 4764,
  "ĠpÃ¡d": 4765,
  "res": 4766,
  "ĠreÅ¥az": 4767,
  "Ġprimer": 4768,
  "aÄįku": 4769,
  "okrÃ¡t": 4770,
  "Ġzomr": 4771,
  "Ġout": 4772,
  "Ġfilozof": 4773,
  "ĠÅ¾il": 4774,
  "Ġstanov": 4775,
  "platÃŃ": 4776,
  "Ġviacero": 4777,
  "Ġpover": 4778,
  "acia": 4779,
  "ĠnÃ¡lad": 4780,
  "Ġsmart": 4781,
  "nÃŃme": 4782,
  "ĠÅ¡t": 4783,
  "ĠvÃ½robkov": 4784,
  "Ġmagnet": 4785,
  "izÃ¡cie": 4786,
  "ĠposlednÃ½": 4787,
  "Ġdrog": 4788,
  "ĠprekÃ¡Å¾": 4789,
  "ĠÃºdrÅ¾": 4790,
  "Ġpozrite": 4791,
  "Ġpl": 4792,
  "ÅĪovala": 4793,
  "son": 4794,
  "ĠakÃ¡": 4795,
  "ĠkoÅ¡ice": 4796,
  "ĠslÃºÅ¾i": 4797,
  "ĠvÃ¡Å¾ne": 4798,
  "ĠzvyÄįajne": 4799,
  "ĠprÃŃleÅ¾itosÅ¥": 4800,
  "ivÃ½ch": 4801,
  "Ġlan": 4802,
  "ĠpÃŃsm": 4803,
  "Ġsl": 4804,
  "Ġniekoho": 4805,
  "ĠzÃ¡znam": 4806,
  "Ġporiadne": 4807,
  "Ġkolo": 4808,
  "Ġpostar": 4809,
  "Ġvyberte": 4810,
  "Ġsoft": 4811,
  "ĠpÃ´rod": 4812,
  "ĠhlavnÃ©": 4813,
  "Ġknihu": 4814,
  "ĠzvÃ¤ÄįÅ¡": 4815,
  "Ġ31": 4816,
  "Ġtepel": 4817,
  "ĠÅ¾al": 4818,
  "ĠprvÃ½krÃ¡t": 4819,
  "ĠÃºÄįasÅ¥": 4820,
  "ĠÄıalÅ¡ÃŃm": 4821,
  "Ġukrajin": 4822,
  "est": 4823,
  "Ġdiplom": 4824,
  "idl": 4825,
  "ĠveÄ¾kÃ½m": 4826,
  "Ġdruhy": 4827,
  "ĠnÃ¡dej": 4828,
  "Ġjedlo": 4829,
  "di": 4830,
  "Ġstrih": 4831,
  "ĠvÃ½po": 4832,
  "Ġnecht": 4833,
  "Ġrecenz": 4834,
  "Ġnepov": 4835,
  "ĠnÃ¡sil": 4836,
  "Ġperson": 4837,
  "ĠsluÅ¡": 4838,
  "ĠuÅ¾itoÄį": 4839,
  "Ġtouto": 4840,
  "Ġcirkvi": 4841,
  "ĠnapÃ¤": 4842,
  "Ġmuz": 4843,
  "Ġwin": 4844,
  "nÃŃte": 4845,
  "Ġpodporuje": 4846,
  "Ġpek": 4847,
  "Ġit": 4848,
  "Ġzadarmo": 4849,
  "ivejÅ¡ie": 4850,
  "Ġobed": 4851,
  "Ġkles": 4852,
  "Ã´t": 4853,
  "ĠfanÃºÅ¡ikov": 4854,
  "Ġtelefon": 4855,
  "Ġcon": 4856,
  "ĠoÅ¡etr": 4857,
  "Ġzasad": 4858,
  "liÅ¥": 4859,
  "Äº": 4860,
  "ĠtÃŃmu": 4861,
  "ĠvÃ½tvar": 4862,
  "ĠkrÃŃz": 4863,
  "Ġokraj": 4864,
  "niam": 4865,
  "Ġvysiel": 4866,
  "Ġda": 4867,
  "ĠzÃ³n": 4868,
  "Ġone": 4869,
  "Ġpriestory": 4870,
  "ĠdÃºfam": 4871,
  "ĠvydrÅ¾": 4872,
  "Ġzemi": 4873,
  "Ġvojny": 4874,
  "tekut": 4875,
  "Ġnapad": 4876,
  "ĠgrÃ©c": 4877,
  "Ãºvali": 4878,
  "avÃ©ho": 4879,
  "oterap": 4880,
  "Ġnohy": 4881,
  "ujÃºcim": 4882,
  "Ġpoklad": 4883,
  "ĠzÃŃskal": 4884,
  "Ġnote": 4885,
  "itÃ¡ch": 4886,
  "ĠdodÃ¡va": 4887,
  "niciach": 4888,
  "ĠvÅ¡eobecne": 4889,
  "Ġplne": 4890,
  "ovke": 4891,
  "Ġgoogle": 4892,
  "ivejÅ¡ia": 4893,
  "ovku": 4894,
  "Ġzaznamen": 4895,
  "ĠvysokÃ©": 4896,
  "ivejÅ¡ÃŃch": 4897,
  "ĠhlavnÃ½m": 4898,
  "ĠnebudÃº": 4899,
  "ĠvÃ½Å¾iv": 4900,
  "Ġdisplej": 4901,
  "ĠvyznaÄį": 4902,
  "ivejÅ¡ÃŃ": 4903,
  "Ġvedia": 4904,
  "Ġterm": 4905,
  "Ġstrednej": 4906,
  "ivejÅ¡ej": 4907,
  "ivejÅ¡iu": 4908,
  "Ġsvojmu": 4909,
  "ivejÅ¡ou": 4910,
  "ivejÅ¡ÃŃm": 4911,
  "ivejÅ¡ÃŃmi": 4912,
  "ivejÅ¡iemu": 4913,
  "ivejÅ¡ieho": 4914,
  "ivejÅ¡om": 4915,
  "kilo": 4916,
  "ĠbÃ¡s": 4917,
  "ĠdostupnÃ©": 4918,
  "Ãºval": 4919,
  "Ġsekt": 4920,
  "Ġoslov": 4921,
  "ÃºvajÃºc": 4922,
  "Ġbodov": 4923,
  "ĠÅ¡tudentov": 4924,
  "Ãºvate": 4925,
  "koÄ¾aj": 4926,
  "Ġpracuje": 4927,
  "Ġmax": 4928,
  "gh": 4929,
  "Ġpovinnosti": 4930,
  "Ãºvala": 4931,
  "Ġnajmenej": 4932,
  "ÃŃku": 4933,
  "Ġgal": 4934,
  "Ġdram": 4935,
  "ĠbÃ½v": 4936,
  "Ãºvam": 4937,
  "Ġtkan": 4938,
  "Ġpokus": 4939,
  "ajÃºceho": 4940,
  "Ãºvaj": 4941,
  "ĠprevaÅ¾": 4942,
  "ÅĪujete": 4943,
  "ĠnÃ¡vrat": 4944,
  "istickej": 4945,
  "Ãºvalo": 4946,
  "ÃºvaÅ¡": 4947,
  "ĠkrajinÃ¡ch": 4948,
  "Ãºvajte": 4949,
  "ĠÃºsme": 4950,
  "Ãºvajme": 4951,
  "ĠrovnakÃ©": 4952,
  "Ġzachyt": 4953,
  "Ġnajstar": 4954,
  "rovnÃ¡": 4955,
  "ĠcÃŃtiÅ¥": 4956,
  "Ġdruhov": 4957,
  "Å¾itok": 4958,
  "iteÄ¾a": 4959,
  "Ġrobot": 4960,
  "ĠlÃŃÅ¡": 4961,
  "Ġtalent": 4962,
  "Ġpodklad": 4963,
  "vÃŃ": 4964,
  "Ġtvoria": 4965,
  "Ġodchod": 4966,
  "Ã¡kom": 4967,
  "itÃŃ": 4968,
  "Ġpiatok": 4969,
  "nÃ¡rod": 4970,
  "Ġodseku": 4971,
  "Ġdreva": 4972,
  "Ġrak": 4973,
  "Ġrozhodnutia": 4974,
  "Ġvode": 4975,
  "Ġ500": 4976,
  "Ġintern": 4977,
  "ĠnoÅ¾": 4978,
  "Ġzrk": 4979,
  "Ġministerstvo": 4980,
  "ĠdeÅ¥mi": 4981,
  "ĠÃºÄįet": 4982,
  "Ġbok": 4983,
  "ĠinvestÃŃ": 4984,
  "Ġdopravy": 4985,
  "telia": 4986,
  "kym": 4987,
  "Ġpodo": 4988,
  "antov": 4989,
  "ĠpohÄ¾adu": 4990,
  "ÅĪovalo": 4991,
  "ĠkaÅ¾dÃ©mu": 4992,
  "Ġtomuto": 4993,
  "ĠÅ¡tÃŃt": 4994,
  "Ġplus": 4995,
  "Ãºre": 4996,
  "ĠÃºÄįelom": 4997,
  "ĠbÃ½va": 4998,
  "Ġihl": 4999,
  "ĠdobrÃ¡": 5000,
  "Ġprvo": 5001,
  "Ġvyvi": 5002,
  "ovskom": 5003,
  "ĠvlastnÃº": 5004,
  "ĠnaÅ¡im": 5005,
  "ip": 5006,
  "Ġvlak": 5007,
  "Ġ>": 5008,
  "Ġdali": 5009,
  "Ġhotels": 5010,
  "Ġimun": 5011,
  "ĠdÃ¡vno": 5012,
  "ĠkariÃ©r": 5013,
  "Ġhust": 5014,
  "Ġtablet": 5015,
  "Ġnaraz": 5016,
  "Ġrevol": 5017,
  "Ġpostel": 5018,
  "ĠoceÄ¾": 5019,
  "ĠbezpeÄįnosÅ¥": 5020,
  "Ġmierne": 5021,
  "ajÃºca": 5022,
  "Ã¡li": 5023,
  "ĠÃºsek": 5024,
  "ĠpoÄ¾nohospodÃ¡r": 5025,
  "Ġvet": 5026,
  "sto": 5027,
  "ÅĪujte": 5028,
  "Ġbruch": 5029,
  "ĠÅ¾iaci": 5030,
  "Ġvrac": 5031,
  "Ġtextom": 5032,
  "aÄįov": 5033,
  "ÅĪuj": 5034,
  "Ġind": 5035,
  "Ġpopri": 5036,
  "ĠznÃ¡my": 5037,
  "Ġstretnutie": 5038,
  "ĠvlastnÃ½": 5039,
  "ĠÅ¾ivotnÃ©ho": 5040,
  "Ġinej": 5041,
  "ĠÃºnie": 5042,
  "Ġodpor": 5043,
  "ĠhovoriÅ¥": 5044,
  "kyÅĪa": 5045,
  "ÅĪujeÅ¡": 5046,
  "ÅĪujme": 5047,
  "ĠstÃºp": 5048,
  "ĠnÃ¡vrhu": 5049,
  "eri": 5050,
  "ĠapartmÃ¡n": 5051,
  "Ġdostane": 5052,
  "Ġsiah": 5053,
  "ĠdokÃ¡Å¾u": 5054,
  "tva": 5055,
  "Ġdych": 5056,
  "Ġakej": 5057,
  "Ġsiv": 5058,
  "ĠaktÃŃvne": 5059,
  "iare": 5060,
  "Ġprior": 5061,
  "vu": 5062,
  "Ġnejde": 5063,
  "ĠÄįud": 5064,
  "nicou": 5065,
  "ĠnejakÃº": 5066,
  "ĠsituÃ¡cia": 5067,
  "ĠpriÅ¡la": 5068,
  "ĠzÃ¡kladnej": 5069,
  "avom": 5070,
  "ĠobrÃ¡t": 5071,
  "ĠtrvÃ¡": 5072,
  "naÄį": 5073,
  "Ġnepotreb": 5074,
  "Ġagr": 5075,
  "vin": 5076,
  "Ġ*": 5077,
  "Ġlopt": 5078,
  "Ġministerstva": 5079,
  "istovi": 5080,
  "nÃŃckeho": 5081,
  "Ġmiestach": 5082,
  "Ġobvod": 5083,
  "ĠpozitÃŃvne": 5084,
  "ory": 5085,
  "erv": 5086,
  "Ġpona": 5087,
  "ĠvÅ¡im": 5088,
  "raz": 5089,
  "Ġstried": 5090,
  "ĠkategÃ³rie": 5091,
  "Ġponuku": 5092,
  "Ġpen": 5093,
  "Å¡etr": 5094,
  "ĠrÃŃm": 5095,
  "ĠÃºlohy": 5096,
  "Ġhom": 5097,
  "Ġtakom": 5098,
  "ĠpÃ´vodne": 5099,
  "Ġkat": 5100,
  "ĠvaÅ¡om": 5101,
  "ĠpruÅ¾": 5102,
  "Ġmini": 5103,
  "podstat": 5104,
  "ĠslÃ¡vnost": 5105,
  "oslov": 5106,
  "Ġsvetovej": 5107,
  "ĠpoÅ¡lite": 5108,
  "nÃŃÄįka": 5109,
  "ĠsprevÃ¡dz": 5110,
  "Ġspl": 5111,
  "ĠzvyÅ¡uje": 5112,
  "Ġakcept": 5113,
  "ĠÅ¡ancu": 5114,
  "Ġ]": 5115,
  "avÃ½mi": 5116,
  "Ġpovie": 5117,
  "Ġobu": 5118,
  "Ġsilu": 5119,
  "ĠaprÃŃla": 5120,
  "istoch": 5121,
  "Ġnaje": 5122,
  "Ġverejnosti": 5123,
  "uÄ¾": 5124,
  "Ã¡torom": 5125,
  "Ġrebr": 5126,
  "ĠneÄįak": 5127,
  "Ġhodnotu": 5128,
  "ĠpoÅ¾iar": 5129,
  "sÃº": 5130,
  "ĠzaÄįiatkom": 5131,
  "Äįi": 5132,
  "Ġpodmienkach": 5133,
  "Ġzved": 5134,
  "ĠveÅ¾": 5135,
  "ĠurÄįenÃ¡": 5136,
  "Ġpriestoroch": 5137,
  "Ġspravod": 5138,
  "ovanÃ©mu": 5139,
  "ĠtakÃ½m": 5140,
  "Ġtenis": 5141,
  "ĠobÄįanov": 5142,
  "ĠuÄ¾ahÄį": 5143,
  "nenÃ½ch": 5144,
  "Ġmzd": 5145,
  "Ġdat": 5146,
  "otvor": 5147,
  "oviek": 5148,
  "Ġmik": 5149,
  "ans": 5150,
  "ĠÄįiar": 5151,
  "ĠarmÃ¡d": 5152,
  "ovacÃŃm": 5153,
  "ÅĻ": 5154,
  "ĠsÃºstav": 5155,
  "acej": 5156,
  "uÃ¡l": 5157,
  "ner": 5158,
  "Ġrobia": 5159,
  "ĠdrÃ¡h": 5160,
  "Ġlov": 5161,
  "izmov": 5162,
  "Ġalerg": 5163,
  "ĠÅ¡tvrÅ¥": 5164,
  "Ġprakticky": 5165,
  "ĠÅ¾iadosÅ¥": 5166,
  "ĠsnÃ¡": 5167,
  "losÅ¥": 5168,
  "Ġcert": 5169,
  "ĠdÃ½ch": 5170,
  "Ġrelat": 5171,
  "ĠÄ¾uÄımi": 5172,
  "Ġpest": 5173,
  "Ġaktualiz": 5174,
  "strk": 5175,
  "Ġvrt": 5176,
  "ciÃ¡ch": 5177,
  "Ã¡rny": 5178,
  "ĠvÄįer": 5179,
  "Ġhas": 5180,
  "Ġfunkciu": 5181,
  "60": 5182,
  "ĠvytvÃ¡ra": 5183,
  "ĠkategÃ³rii": 5184,
  "Ġzdarma": 5185,
  "ĠkameÅĪ": 5186,
  "Ġlimit": 5187,
  "Ġodomk": 5188,
  "iteÄ¾nÃ½": 5189,
  "ĠprÃŃsÅ¥": 5190,
  "Ġstat": 5191,
  "ĠmontÃ¡Å¾": 5192,
  "Äįeky": 5193,
  "Ġvesel": 5194,
  "dvoj": 5195,
  "Ġam": 5196,
  "ĠreÅ¡pekt": 5197,
  "iate": 5198,
  "uli": 5199,
  "ĠskrÃ¡t": 5200,
  "Ġposchod": 5201,
  "nÃŃctve": 5202,
  "Ã¡rovi": 5203,
  "ĠsnaÅ¾ÃŃ": 5204,
  "Ġtakej": 5205,
  "Ġfotky": 5206,
  "Ã¡rske": 5207,
  "ĠdevÃ¤Å¥": 5208,
  "Ġchorob": 5209,
  "Ġenergiu": 5210,
  "Ġpenz": 5211,
  "Ã¡lnemu": 5212,
  "Ġlu": 5213,
  "ĠvzdelÃ¡vania": 5214,
  "iciam": 5215,
  "ĠprÃŃjemnÃ©": 5216,
  "ĠneÄıal": 5217,
  "ĠponÃºkajÃº": 5218,
  "ĠpracovnÃ©": 5219,
  "ill": 5220,
  "ÃŃvnych": 5221,
  "Ġastr": 5222,
  "Ġneexist": 5223,
  "ĠpoÄıak": 5224,
  "ĠvyuÅ¾itie": 5225,
  "Ġmok": 5226,
  "ĠdruhÃ©ho": 5227,
  "ĠdostatoÄįne": 5228,
  "ĠÄįoraz": 5229,
  "Ġprostriedkov": 5230,
  "ĠslovenskÃ©": 5231,
  "Ġpestr": 5232,
  "istickÃ©ho": 5233,
  "Ġbezplat": 5234,
  "istickÃ¡": 5235,
  "ĠÃºÄįtov": 5236,
  "Ġinternete": 5237,
  "ĠsnÃ¡Äı": 5238,
  "ger": 5239,
  "Ġosta": 5240,
  "ĠboÄį": 5241,
  "ĠsmrÅ¥": 5242,
  "acieho": 5243,
  "ĠzakÃºp": 5244,
  "kotÃº": 5245,
  "ĠnesprÃ¡v": 5246,
  "ĠnÃ¡byt": 5247,
  "ĠnepriateÄ¾": 5248,
  "Ġmulti": 5249,
  "ĠvedÄ¾a": 5250,
  "ĠohÄ¾adu": 5251,
  "Ġmodlit": 5252,
  "ĠnajnÃ¡": 5253,
  "ĠposteÄ¾": 5254,
  "ĠstrÃ¡nok": 5255,
  "ĠvnÃºtri": 5256,
  "Ġzlom": 5257,
  "ĠmotÃŃv": 5258,
  "ĠpomÃ´c": 5259,
  "iÄįov": 5260,
  "ĠbliÅ¾Å¡ie": 5261,
  "Ġkomplik": 5262,
  "kyv": 5263,
  "raÅĪaj": 5264,
  "Ġprospech": 5265,
  "Ġhrab": 5266,
  "Ġpil": 5267,
  "ĠvzÅ¥ahy": 5268,
  "ĠotÃ¡zka": 5269,
  "ĠmuÅ¾i": 5270,
  "yhodn": 5271,
  "ĠzabrÃ¡n": 5272,
  "ori": 5273,
  "experiment": 5274,
  "izmy": 5275,
  "ĠstrÃ¡nkach": 5276,
  "ĠÅ¾ije": 5277,
  "Ã¡ty": 5278,
  "Ġhodinu": 5279,
  "ze": 5280,
  "Ġposu": 5281,
  "Ġdek": 5282,
  "aÄįiek": 5283,
  "ĠprÃŃspevok": 5284,
  "Ġzane": 5285,
  "ĠvyuÅ¾ÃŃvaÅ¥": 5286,
  "ĠvysvetÄ¾": 5287,
  "Ġzriad": 5288,
  "predu": 5289,
  "Ġkoncom": 5290,
  "ĠpovinnosÅ¥": 5291,
  "prav": 5292,
  "kat": 5293,
  "ĠjanuÃ¡ra": 5294,
  "ĠkonÄį": 5295,
  "ĠvlastnÃ½ch": 5296,
  "ĠÄįeskej": 5297,
  "Ġbratislavy": 5298,
  "ĠÅ¡koda": 5299,
  "Ġbor": 5300,
  "Ġosad": 5301,
  "Ġfrekv": 5302,
  "nÃŃÅ¡": 5303,
  "ĠsituÃ¡ciu": 5304,
  "ĠmiliÃ³": 5305,
  "praj": 5306,
  "Ġspomien": 5307,
  "ĠÅ¡tyroch": 5308,
  "ĠÄįasom": 5309,
  "ÃŃkmi": 5310,
  "Ġoddych": 5311,
  "rez": 5312,
  "ĠlÃ¡ska": 5313,
  "ĠprvÃ½m": 5314,
  "Ġmarca": 5315,
  "Ġnovom": 5316,
  "ovcov": 5317,
  "Ġodhal": 5318,
  "Ġnemala": 5319,
  "livÃ©": 5320,
  "Ġriziko": 5321,
  "Ġdoslova": 5322,
  "ĠrÃ½chle": 5323,
  "Ġobchodu": 5324,
  "Ġschopnosti": 5325,
  "Ġzver": 5326,
  "ivej": 5327,
  "ĠohÄ¾adom": 5328,
  "Ġtechniky": 5329,
  "Ġnij": 5330,
  "Ġdiela": 5331,
  "niÄįky": 5332,
  "Ġpondel": 5333,
  "Ġliterat": 5334,
  "icyk": 5335,
  "ovateÄ¾ov": 5336,
  "Ġrozhodla": 5337,
  "Ġ2011": 5338,
  "ĠsÄ¾ub": 5339,
  "ĠjedÃ¡l": 5340,
  "Ġbytu": 5341,
  "Ġnijak": 5342,
  "Ġkilom": 5343,
  "Ġdus": 5344,
  "ovacia": 5345,
  "ĠtechnolÃ³gie": 5346,
  "dÃ´raz": 5347,
  "Ġpredseda": 5348,
  "Ġzaob": 5349,
  "Ġobe": 5350,
  "ovisko": 5351,
  "ĠverÃŃm": 5352,
  "noprÃ¡v": 5353,
  "oviÄį": 5354,
  "avÃ©mu": 5355,
  "Ġpost": 5356,
  "Ġmedic": 5357,
  "Ġnepodar": 5358,
  "Ġodosl": 5359,
  "Ġnajlep": 5360,
  "wa": 5361,
  "Ġsved": 5362,
  "ĠistÃ½": 5363,
  "ĠpÃ¡na": 5364,
  "ajÃºcej": 5365,
  "Ġobdiv": 5366,
  "Ġvtip": 5367,
  "ĠvÃ½Å¡ky": 5368,
  "ĠprvÃº": 5369,
  "ĠuÅ¡etr": 5370,
  "ĠdoÅ¡lo": 5371,
  "nok": 5372,
  "Ġdoba": 5373,
  "ĠÄįesko": 5374,
  "Ġdostatok": 5375,
  "Ġhlbok": 5376,
  "ÄįnÃ©": 5377,
  "Ġfran": 5378,
  "Ġplech": 5379,
  "ĠÅ¡Å¥av": 5380,
  "Ġpravdu": 5381,
  "Ġnim": 5382,
  "ovaniach": 5383,
  "inka": 5384,
  "ĠzaÅ¾i": 5385,
  "Ġgran": 5386,
  "Ġnerob": 5387,
  "Ġhru": 5388,
  "ĠprÃŃznak": 5389,
  "ĠhÄ¾adaÅ¥": 5390,
  "ĠobleÄįenie": 5391,
  "ĠobjednaÅ¥": 5392,
  "ĠposkytnÃºÅ¥": 5393,
  "Ġnasad": 5394,
  "ĠvÃ¤ÄįÅ¡ÃŃ": 5395,
  "ĠpeknÃ©": 5396,
  "Ġzabi": 5397,
  "ĠÄįoho": 5398,
  "ĠviesÅ¥": 5399,
  "ĠnapÃŃÅ¡": 5400,
  "ron": 5401,
  "Ġuzatvor": 5402,
  "kredit": 5403,
  "islat": 5404,
  "ĠÄįomu": 5405,
  "Ġozdob": 5406,
  "ĠpodpÃŃs": 5407,
  "ĠpÃºt": 5408,
  "Ġbiskup": 5409,
  "Ġhal": 5410,
  "ĠjedinÃ½": 5411,
  "Ġlegislat": 5412,
  "Ġlamp": 5413,
  "polu": 5414,
  "Ġgu": 5415,
  "ĠpravidlÃ¡": 5416,
  "ond": 5417,
  "ĠefektÃŃv": 5418,
  "Ġdokonale": 5419,
  "ÃŃsk": 5420,
  "ĠdodrÅ¾iav": 5421,
  "Ġprs": 5422,
  "Ġklam": 5423,
  "Ġpodpis": 5424,
  "bami": 5425,
  "Ġkilomet": 5426,
  "Ġrozvod": 5427,
  "Ã½na": 5428,
  "avajÃº": 5429,
  "ĠpeÅĪaÅ¾": 5430,
  "Ġznamen": 5431,
  "book": 5432,
  "Ġodvod": 5433,
  "Ġredak": 5434,
  "ĠdobrÃº": 5435,
  "ĠreÅ¾": 5436,
  "Ġdotyk": 5437,
  "Ġvoja": 5438,
  "Ġpoby": 5439,
  "ĠosvedÄį": 5440,
  "Ġ35": 5441,
  "ĠveÄ¾kou": 5442,
  "Ġpravd": 5443,
  "Ġ2010": 5444,
  "Ġobstar": 5445,
  "Ġudel": 5446,
  "Ġmanipul": 5447,
  "Ġpozemku": 5448,
  "iteÄ¾ne": 5449,
  "Ġzu": 5450,
  "Ġest": 5451,
  "Ġstavby": 5452,
  "ĠstarÃ©": 5453,
  "Ġpodozr": 5454,
  "ĠpozÃ½v": 5455,
  "ĠmalÃ¡": 5456,
  "Ġauta": 5457,
  "ĠrÃºk": 5458,
  "ĠgÃ©l": 5459,
  "ĠsoftvÃ©r": 5460,
  "ĠmenÃŃ": 5461,
  "ĠpridaÅ¥": 5462,
  "adel": 5463,
  "omi": 5464,
  "ciami": 5465,
  "Ġnahrad": 5466,
  "Ġbla": 5467,
  "ĠzodpovednosÅ¥": 5468,
  "ĠprevÃ¡dzky": 5469,
  "ujÃºcemu": 5470,
  "ĠvÃ½konu": 5471,
  "ĠnedokÃ¡Å¾": 5472,
  "ÄįÃŃt": 5473,
  "Ġsvadob": 5474,
  "Ġrodina": 5475,
  "ĠÅ¡tÃ¡tnej": 5476,
  "Ġbudovy": 5477,
  "ĠprÃ¡vn": 5478,
  "ĠprÃŃpravu": 5479,
  "ĠobsahujÃº": 5480,
  "Ġkontra": 5481,
  "not": 5482,
  "ĠblÃŃÅ¾": 5483,
  "Ġsort": 5484,
  "izmami": 5485,
  "Ġmajetku": 5486,
  "ĠzistiÅ¥": 5487,
  "vahy": 5488,
  "ovar": 5489,
  "Ġmesiace": 5490,
  "ĠporovnanÃŃ": 5491,
  "ĠnovinÃ¡r": 5492,
  "ĠvychÃ¡dz": 5493,
  "ĠstÄºp": 5494,
  "Ġfilmu": 5495,
  "avaÅ¥": 5496,
  "Ġgomb": 5497,
  "loÅ¾": 5498,
  "ĠvyskÃºÅ¡aÅ¥": 5499,
  "ĠÄįlenom": 5500,
  "ĠprÃ¡Å¡": 5501,
  "Ġudalosti": 5502,
  "ĠÃºtoÄį": 5503,
  "Å¡ediv": 5504,
  "ĠnaÅ¡li": 5505,
  "ĠnechaÅ¥": 5506,
  "ĠÄįlenovia": 5507,
  "Ġnepopri": 5508,
  "ĠpovaÅ¾uje": 5509,
  "ĠsociÃ¡lnej": 5510,
  "ĠnajneskÃ´r": 5511,
  "ĠdÃ´raz": 5512,
  "ĠchvÃ¡l": 5513,
  "ĠtÃ³n": 5514,
  "ĠzÃ¡leÅ¾ito": 5515,
  "Ġbicyk": 5516,
  "Ġfarieb": 5517,
  "Ġkry": 5518,
  "ĠpÃŃÅ¡e": 5519,
  "Ã¡ÅĪ": 5520,
  "Ġsrdca": 5521,
  "ĠrÃ½chlosÅ¥": 5522,
  "ĠzabezpeÄįuje": 5523,
  "otala": 5524,
  "ĠnajvÃ¤ÄįÅ¡ÃŃ": 5525,
  "Ġbody": 5526,
  "Ġkvalita": 5527,
  "Ġklientov": 5528,
  "Ġasist": 5529,
  "Ġbomb": 5530,
  "Ġventil": 5531,
  "otal": 5532,
  "Ġmojich": 5533,
  "Ġchyst": 5534,
  "ĠtÃ©mu": 5535,
  "Ġhrn": 5536,
  "let": 5537,
  "ĠodporÃºÄįam": 5538,
  "Ã¡rÄį": 5539,
  "ĠzÃ¡vaÅ¾": 5540,
  "ĠpouÅ¾ÃŃvanie": 5541,
  "Ġprach": 5542,
  "Ġprvky": 5543,
  "Ġzb": 5544,
  "ĠvÃ½Å¡ka": 5545,
  "Ġhudby": 5546,
  "ĠmoÅ¾nosÅ¥ou": 5547,
  "Ġjo": 5548,
  "izmoch": 5549,
  "stre": 5550,
  "Ġhosti": 5551,
  "hodnoc": 5552,
  "Ġopatrenia": 5553,
  "ĠvÃŃr": 5554,
  "izme": 5555,
  "anejÅ¡ie": 5556,
  "Ġzmena": 5557,
  "otali": 5558,
  "ĠzastupiteÄ¾": 5559,
  "Ġkedysi": 5560,
  "Ġkrk": 5561,
  "Ġspracovanie": 5562,
  "Ġjapon": 5563,
  "ĠzÃ¡siel": 5564,
  "Ġvianoc": 5565,
  "Ġnesmie": 5566,
  "ateÄ¾a": 5567,
  "Ġhlavu": 5568,
  "kol": 5569,
  "Ġnap": 5570,
  "olÃ³gie": 5571,
  "ĠÅ¡krab": 5572,
  "ĠaktivÃŃt": 5573,
  "Ġinfek": 5574,
  "ĠnÃ¡vod": 5575,
  "Ġnajhor": 5576,
  "14": 5577,
  "pokoj": 5578,
  "ĠdomÃ¡cnosti": 5579,
  "Ġknihe": 5580,
  "ĠÅ¾iadna": 5581,
  "atÃŃvny": 5582,
  "Ġsn": 5583,
  "ĠkrÃºÅ¾": 5584,
  "Ġtekut": 5585,
  "ĠnovÃ½m": 5586,
  "ujÃºcej": 5587,
  "Ġlav": 5588,
  "ĠkrÃ¡sny": 5589,
  "otaÅ¥": 5590,
  "ĠhostÃŃ": 5591,
  "Ġes": 5592,
  "Ġviz": 5593,
  "otalo": 5594,
  "ĠdochÃ¡dza": 5595,
  "kul": 5596,
  "ĠmanaÅ¾Ã©r": 5597,
  "ĠplnÃ©": 5598,
  "ĠznÃŃ": 5599,
  "Ġsex": 5600,
  "ĠsluÅ¾bu": 5601,
  "ĠpotrebujÃº": 5602,
  "Ġvedeli": 5603,
  "iteÄ¾ov": 5604,
  "ĠdediÄį": 5605,
  "ovkou": 5606,
  "ĠÅ¡etr": 5607,
  "Ġstranu": 5608,
  "pneumat": 5609,
  "Ġopis": 5610,
  "jme": 5611,
  "ĠznaÄįka": 5612,
  "ĠjÃºla": 5613,
  "ĠvlÃ¡da": 5614,
  "Ġdala": 5615,
  "Ġpresta": 5616,
  "ĠÃºprim": 5617,
  "ĠinÅ¡truk": 5618,
  "ĠhrÃ¡Äįi": 5619,
  "ĠsociÃ¡lne": 5620,
  "ĠfinanÄįnÃ©": 5621,
  "Ġuklad": 5622,
  "Ġjesen": 5623,
  "ĠskutoÄįnosÅ¥": 5624,
  "Ġmozg": 5625,
  "Ġekolog": 5626,
  "ĠÄįaro": 5627,
  "ĠnajlepÅ¡ÃŃch": 5628,
  "anÃ©mu": 5629,
  "rab": 5630,
  "booku": 5631,
  "argument": 5632,
  "uhodn": 5633,
  "nÃŃÄįky": 5634,
  "Ġdoj": 5635,
  "Ġkotl": 5636,
  "ĠkÃºpnej": 5637,
  "Ġshop": 5638,
  "aÄ¾": 5639,
  "ula": 5640,
  "90": 5641,
  "ocÃº": 5642,
  "ĠatmosfÃ©ru": 5643,
  "avosÅ¥": 5644,
  "Ġzneu": 5645,
  "ĠÅ¾iaÄ¾": 5646,
  "Ġprebeh": 5647,
  "Ġcertifik": 5648,
  "Ġobsahom": 5649,
  "ĠbohuÅ¾iaÄ¾": 5650,
  "Ġpriestorov": 5651,
  "Ġextra": 5652,
  "ĠhÄ¾adÃ¡te": 5653,
  "ĠrÃ³m": 5654,
  "Ġkin": 5655,
  "ĠstrÃ¡nka": 5656,
  "obchod": 5657,
  "Ġnajmen": 5658,
  "ĠvysokÃ½": 5659,
  "iÄįiar": 5660,
  "les": 5661,
  "ĠhosÅ¥": 5662,
  "ovskÃº": 5663,
  "Ġbanky": 5664,
  "ive": 5665,
  "Ġtriedy": 5666,
  "ĠsezÃ³ny": 5667,
  "Ġpleti": 5668,
  "ocem": 5669,
  "Ġstretnutia": 5670,
  "13": 5671,
  "Å¡tr": 5672,
  "Ġmedail": 5673,
  "ocete": 5674,
  "oceme": 5675,
  "oceÅ¡": 5676,
  "ĠtriÄį": 5677,
  "prisah": 5678,
  "ĠbudÃºci": 5679,
  "Ġtakt": 5680,
  "Ġreproduk": 5681,
  "ĠpokoÅ¾ky": 5682,
  "ĠÄįe": 5683,
  "Ġposlednej": 5684,
  "ÅĪach": 5685,
  "ĠmenÅ¡ie": 5686,
  "Ġhygien": 5687,
  "Ġmrz": 5688,
  "ĠproblÃ©mom": 5689,
  "ĠspoloÄįnÃ©": 5690,
  "Ġlev": 5691,
  "Ġ196": 5692,
  "Ġfir": 5693,
  "ack": 5694,
  "Ã¡rnej": 5695,
  "ĠnedÃ¡vno": 5696,
  "Ġhesl": 5697,
  "izÃ¡cia": 5698,
  "Ġdvoma": 5699,
  "Ġprojektov": 5700,
  "Ġleto": 5701,
  "Ġfajn": 5702,
  "Ġnechce": 5703,
  "Ġmasl": 5704,
  "ĠzlÃ©": 5705,
  "ĠpredÃ¡vajÃºceho": 5706,
  "Ġfarbu": 5707,
  "ĠobchodnÃ½ch": 5708,
  "Ã³nu": 5709,
  "octe": 5710,
  "Ġparku": 5711,
  "Ġrozvoja": 5712,
  "pt": 5713,
  "ĠnajzÃ¡": 5714,
  "ĠtaneÄį": 5715,
  "ĠzahraniÄįÃŃ": 5716,
  "Ġdivadel": 5717,
  "ĠlyÅ¾iar": 5718,
  "ĠotoÄį": 5719,
  "Ġexperiment": 5720,
  "Ġuhor": 5721,
  "ĠvÃ½hodou": 5722,
  "ocme": 5723,
  "Ġvykur": 5724,
  "anejÅ¡ÃŃch": 5725,
  "Ġsc": 5726,
  "ĠkanÃ¡l": 5727,
  "Ġnee": 5728,
  "ÃŃvnej": 5729,
  "ĠsprÃ¡vny": 5730,
  "citliv": 5731,
  "enosÅ¥ou": 5732,
  "noch": 5733,
  "Ã¡rskych": 5734,
  "ĠlÃŃn": 5735,
  "ajÅ¡ÃŃch": 5736,
  "Ġhotelov": 5737,
  "Ġzbran": 5738,
  "Ġton": 5739,
  "akrÃ¡t": 5740,
  "Ġodhad": 5741,
  "Å¡Å¥astie": 5742,
  "ster": 5743,
  "Ġasoci": 5744,
  "ĠuvedenÃ½ch": 5745,
  "ĠpremiÃ©r": 5746,
  "niÄįka": 5747,
  "Ġbielkov": 5748,
  "Ġmisi": 5749,
  "ĠexistujÃº": 5750,
  "ĠspÃ½t": 5751,
  "Ġolymp": 5752,
  "Ã¡rskej": 5753,
  "ĠpriblÃŃÅ¾": 5754,
  "ĠzdieÄ¾": 5755,
  "Ġmarketing": 5756,
  "ĠbolesÅ¥": 5757,
  "Ġaho": 5758,
  "ĠmateriÃ¡ly": 5759,
  "ĠzÃ¡konom": 5760,
  "ÄįnÃ½": 5761,
  "Ġvrav": 5762,
  "Ġbronz": 5763,
  "ĠpokÃºs": 5764,
  "Ġnajod": 5765,
  "Ġprocesu": 5766,
  "ĠvstÃºp": 5767,
  "ĠmlÃ¡deÅ¾": 5768,
  "25": 5769,
  "Ġtanc": 5770,
  "ovanejÅ¡ie": 5771,
  "Ġkos": 5772,
  "inovÃ©": 5773,
  "kresÄ¾": 5774,
  "Ġing": 5775,
  "Ã´sob": 5776,
  "787": 5777,
  "ivom": 5778,
  "ĠsÅ¥ah": 5779,
  "Ġharmon": 5780,
  "nutiu": 5781,
  "Ġvznikla": 5782,
  "ĠbezpeÄįnosti": 5783,
  "kompon": 5784,
  "ĠstratÃ©g": 5785,
  "ĠzaslÃºÅ¾": 5786,
  "milov": 5787,
  "Ġnat": 5788,
  "Ġregist": 5789,
  "ologickÃ©": 5790,
  "ĠÄįokolÃ¡d": 5791,
  "ovÅĪa": 5792,
  "Ġvozidiel": 5793,
  "ĠuchÃ¡dz": 5794,
  "zrak": 5795,
  "Ġbled": 5796,
  "ĠÄıalÅ¡iu": 5797,
  "Ġply": 5798,
  "ĠuvÃ¡dza": 5799,
  "Ġverejnej": 5800,
  "odaj": 5801,
  "nÃŃcka": 5802,
  "ĠzÃ¡vislosti": 5803,
  "Ġmeta": 5804,
  "Ġodomknite": 5805,
  "ĠvÃ½hÄ¾ad": 5806,
  "ĠzhromaÅ¾d": 5807,
  "ĠromÃ¡n": 5808,
  "Ġkonflikt": 5809,
  "ovaniam": 5810,
  "ikovi": 5811,
  "Ġkonzerv": 5812,
  "Ġrakov": 5813,
  "Ãºce": 5814,
  "ovaniami": 5815,
  "ĠtomÃ¡Å¡": 5816,
  "Ġnaz": 5817,
  "itÃ½": 5818,
  "Ġ8787": 5819,
  "Ġzrazu": 5820,
  "ĠzaÄįalo": 5821,
  "aniach": 5822,
  "ateÄ¾ov": 5823,
  "ĠprÃŃloh": 5824,
  "Ġdub": 5825,
  "speÅ¡": 5826,
  "Ġpacientov": 5827,
  "ĠzÃ¡konov": 5828,
  "Ġstrana": 5829,
  "ĠpotravÃŃn": 5830,
  "ĠpreÅ¾i": 5831,
  "ĠvysokÃº": 5832,
  "ovskÃ½m": 5833,
  "ĠtakÃ½chto": 5834,
  "ĠdolÃ¡r": 5835,
  "bal": 5836,
  "ĠvesmÃŃr": 5837,
  "ĠlÃ¡k": 5838,
  "Ã¡nok": 5839,
  "ĠpripraviÅ¥": 5840,
  "ĠkoÅ¡iciach": 5841,
  "Ġ29": 5842,
  "ĠihneÄı": 5843,
  "nicami": 5844,
  "ĠsÃŃl": 5845,
  "Ġbudov": 5846,
  "Ġel": 5847,
  "Ġ).": 5848,
  "Ġkres": 5849,
  "Ġwebovej": 5850,
  "Ãºcie": 5851,
  "skyt": 5852,
  "Ġpneumat": 5853,
  "ĠzÃ¡Å¾itok": 5854,
  "ĠplanÃ©t": 5855,
  "Ġodv": 5856,
  "Ġstali": 5857,
  "Ġviaz": 5858,
  "Ġokamih": 5859,
  "Ġdoktor": 5860,
  "ĠprÃŃrodnÃ©": 5861,
  "Ġtrag": 5862,
  "ĠÄ¾ahkÃ©": 5863,
  "ÃŃkoch": 5864,
  "omil": 5865,
  "Ġzaved": 5866,
  "atr": 5867,
  "Ġsvetla": 5868,
  "Ġdramat": 5869,
  "Ġkresl": 5870,
  "Ġradu": 5871,
  "Ġopt": 5872,
  "krÃ½va": 5873,
  "jednot": 5874,
  "ĠlenÅ¾e": 5875,
  "aÄįi": 5876,
  "ĠdruhÃº": 5877,
  "ĠzdÃ´raz": 5878,
  "ĠÅ¡up": 5879,
  "ĠorganizÃ¡cia": 5880,
  "ĠÅ¡tÃ¡tov": 5881,
  "Ġet": 5882,
  "ĠvylÃºÄį": 5883,
  "Ġobsad": 5884,
  "Ġponuka": 5885,
  "istickÃ½m": 5886,
  "Ġnehod": 5887,
  "ĠpoÄįasie": 5888,
  "aÄįke": 5889,
  "Ġslovenskom": 5890,
  "nÃŃckom": 5891,
  "Ġkryt": 5892,
  "Ġvedel": 5893,
  "Ġkomisie": 5894,
  "vÃ½hod": 5895,
  "ĠzÃ¡ujmu": 5896,
  "ĠpÃŃsaÅ¥": 5897,
  "Ġglob": 5898,
  "Ġzdravia": 5899,
  "ÃŃnov": 5900,
  "Ġkonzult": 5901,
  "Ġznalo": 5902,
  "ton": 5903,
  "ĠzaÄįiatok": 5904,
  "stich": 5905,
  "Ġdon": 5906,
  "fin": 5907,
  "Ġvedenie": 5908,
  "Ġ&": 5909,
  "ĠdruhÃ©": 5910,
  "ĠÃºspor": 5911,
  "Ġdecembra": 5912,
  "Ġzle": 5913,
  "Ġducha": 5914,
  "ĠsÃºdu": 5915,
  "ĠvysokÃ¡": 5916,
  "Ġnevys": 5917,
  "ĠzÃŃskate": 5918,
  "ĠkoÅ¾e": 5919,
  "Ġnud": 5920,
  "ĠkÃºr": 5921,
  "Ġlete": 5922,
  "Ġjazer": 5923,
  "ovateÄ¾a": 5924,
  "iskÃ¡ch": 5925,
  "ation": 5926,
  "Ã¡rsky": 5927,
  "ovaciu": 5928,
  "ĠdneÅ¡nej": 5929,
  "ĠÄıakujeme": 5930,
  "Ġnehovor": 5931,
  "Ġkilo": 5932,
  "ĠskvelÃ©": 5933,
  "icko": 5934,
  "ĠvÅ¡etkÃ½mi": 5935,
  "Ġhnoj": 5936,
  "Ġnetreba": 5937,
  "Ġprevenc": 5938,
  "Ġem": 5939,
  "ĠneskorÅ¡ÃŃch": 5940,
  "Ġpreukaz": 5941,
  "otyp": 5942,
  "dli": 5943,
  "ĠbalkÃ³n": 5944,
  "arist": 5945,
  "Ġvidel": 5946,
  "ĠnezÃº": 5947,
  "ĠnavÅ¡tÃŃviÅ¥": 5948,
  "ĠangliÄį": 5949,
  "Ġbran": 5950,
  "Ġobvyk": 5951,
  "ĠzvÃ½Å¡enie": 5952,
  "Ġpostoj": 5953,
  "ĠdiÃ©t": 5954,
  "Ġpozemok": 5955,
  "niesÅ¥": 5956,
  "ĠrÃ´znymi": 5957,
  "Ġbox": 5958,
  "Ġdielo": 5959,
  "ĠkÃºsok": 5960,
  "stvach": 5961,
  "ĠtopÃ¡nk": 5962,
  "Ġoff": 5963,
  "Ġfeder": 5964,
  "Ġmnou": 5965,
  "stvam": 5966,
  "lej": 5967,
  "ĠnevÃ½": 5968,
  "ĠÅ¡Å¥astie": 5969,
  "ĠmÃ´Å¾eÅ¡": 5970,
  "ĠpodieÄ¾": 5971,
  "ias": 5972,
  "ĠmasÃ¡Å¾": 5973,
  "Ġdoda": 5974,
  "Ġlegend": 5975,
  "ĠveÄį": 5976,
  "ks": 5977,
  "ikami": 5978,
  "oxid": 5979,
  "ĠspiÅ¡": 5980,
  "Ġdole": 5981,
  "ĠsystÃ©mov": 5982,
  "itami": 5983,
  "ct": 5984,
  "ĠvzÃ¡cn": 5985,
  "ĠkÄºb": 5986,
  "Ġtrat": 5987,
  "nutej": 5988,
  "Ġseni": 5989,
  "Ã³g": 5990,
  "ologickÃ½ch": 5991,
  "Ġvply": 5992,
  "Ġmrav": 5993,
  "ret": 5994,
  "Â°": 5995,
  "ĠvykonÃ¡va": 5996,
  "Ġaugusta": 5997,
  "ĠbetÃ³n": 5998,
  "ivosÅ¥": 5999,
  "Ġpoduja": 6000,
  "Ġjasno": 6001,
  "rod": 6002,
  "ĠdomÃ¡cich": 6003,
  "Ġcene": 6004,
  "Ġrozsiah": 6005,
  "Ġdodnes": 6006,
  "gan": 6007,
  "ĠnÃ¡kladov": 6008,
  "Ġpotr": 6009,
  "Ġhre": 6010,
  "ĠÃºzko": 6011,
  "nika": 6012,
  "anejÅ¡ÃŃm": 6013,
  "Ġneko": 6014,
  "Ġpodnet": 6015,
  "ĠÅ¡ib": 6016,
  "ĠplnÃ½": 6017,
  "Ġbielo": 6018,
  "Ġcar": 6019,
  "ĠÅ¡aty": 6020,
  "vzduÅ¡": 6021,
  "ajÃºcim": 6022,
  "Ġpohlav": 6023,
  "Ġnajnepo": 6024,
  "ovitejÅ¡ie": 6025,
  "ĠvÃ½dav": 6026,
  "Ġvychutn": 6027,
  "ĠopÃ¤t": 6028,
  "Ã¡rskeho": 6029,
  "Ġpedagog": 6030,
  "Ġaudio": 6031,
  "anejÅ¡ÃŃ": 6032,
  "Ġdlhodobo": 6033,
  "Ġteba": 6034,
  "bohat": 6035,
  "Ġnajkon": 6036,
  "ĠnÃ¡poj": 6037,
  "anti": 6038,
  "ĠiÅ¡lo": 6039,
  "ĠakÃ©koÄ¾vek": 6040,
  "Ġstredu": 6041,
  "Ã¡lov": 6042,
  "Ġregener": 6043,
  "Ġpotraviny": 6044,
  "ĠpoÄįt": 6045,
  "Ġmaz": 6046,
  "Ġhad": 6047,
  "ĠkvalitnÃ½": 6048,
  "ĠÃºspeÅ¡ne": 6049,
  "ality": 6050,
  "ĠverejnosÅ¥": 6051,
  "Ġrekre": 6052,
  "Ġ300": 6053,
  "Ġinov": 6054,
  "ĠlÃ¡sku": 6055,
  "ĠÅ¾elezniÄį": 6056,
  "kovia": 6057,
  "Ġqu": 6058,
  "ĠraÅĪaj": 6059,
  "ĠzÃ¡sah": 6060,
  "ĠÅ¾iadnu": 6061,
  "nÃ¡sÅ¥": 6062,
  "ĠuskutoÄįnÃŃ": 6063,
  "ializ": 6064,
  "Ġau": 6065,
  "iteÄ¾om": 6066,
  "Ġnepona": 6067,
  "Ġvyda": 6068,
  "ovitejÅ¡ÃŃ": 6069,
  "ĠopaÄį": 6070,
  "ĠhlavnÃ½": 6071,
  "ovitejÅ¡ÃŃch": 6072,
  "ĠverejnÃ©ho": 6073,
  "ovitejÅ¡iu": 6074,
  "ovitejÅ¡ia": 6075,
  "ovitejÅ¡ej": 6076,
  "ĠakÃ½ch": 6077,
  "ovitejÅ¡ieho": 6078,
  "ovitejÅ¡ÃŃm": 6079,
  "ovitejÅ¡iemu": 6080,
  "ovitejÅ¡om": 6081,
  "ovitejÅ¡ÃŃmi": 6082,
  "ovitejÅ¡ou": 6083,
  "ĠjednoduchÃ½": 6084,
  "Ġchleb": 6085,
  "ĠzmieÅ¡": 6086,
  "40": 6087,
  "Ġrodine": 6088,
  "ĠskvelÃ½": 6089,
  "ĠpÃ¡peÅ¾": 6090,
  "Ġ),": 6091,
  "ĠmÃºdr": 6092,
  "Ġbur": 6093,
  "istka": 6094,
  "Ġsan": 6095,
  "ĠzÃ¡ber": 6096,
  "Ġnajde": 6097,
  "ĠzapÃŃs": 6098,
  "Ġmatrac": 6099,
  "ĠnÃºt": 6100,
  "aÄįkou": 6101,
  "eck": 6102,
  "Ġtro": 6103,
  "ĠÃºct": 6104,
  "Ġanim": 6105,
  "ĠodstrÃ¡niÅ¥": 6106,
  "Ġdov": 6107,
  "ĠvÃ½hody": 6108,
  "Ġhrob": 6109,
  "vac": 6110,
  "ĠprieÄį": 6111,
  "ĠdostÃ¡va": 6112,
  "por": 6113,
  "Ġskrin": 6114,
  "Ġnajdo": 6115,
  "ĠnechÃ½b": 6116,
  "Ġochorenia": 6117,
  "ĠvÃ¤ÄįÅ¡inu": 6118,
  "ikÃ¡ch": 6119,
  "Ġhydro": 6120,
  "ĠsystÃ©mom": 6121,
  "Ġsyr": 6122,
  "Ġnajin": 6123,
  "anÄį": 6124,
  "Ġmoto": 6125,
  "Ã¡tori": 6126,
  "Ġrodinu": 6127,
  "istickÃº": 6128,
  "ĠkupujÃºceho": 6129,
  "Ã¡Å¾e": 6130,
  "ĠpochÃ¡dza": 6131,
  "ĠnÃ¡dob": 6132,
  "ĠvÄįel": 6133,
  "Ġlikvid": 6134,
  "ĠseminÃ¡r": 6135,
  "Ġinfra": 6136,
  "Ġkrst": 6137,
  "Ġproduktu": 6138,
  "ĠprÃŃpravy": 6139,
  "ĠnÃ¡jom": 6140,
  "ĠpreruÅ¡": 6141,
  "Ġnomin": 6142,
  "ĠkatolÃŃc": 6143,
  "ĠnapÃŃsal": 6144,
  "ĠnÃ¡vÅ¡tevnÃŃkov": 6145,
  "izÃ¡ciu": 6146,
  "Ġkapitol": 6147,
  "ĠÄįÃŃsla": 6148,
  "dia": 6149,
  "ĠnapÃŃsaÅ¥": 6150,
  "ĠlepÅ¡ÃŃ": 6151,
  "enostÃŃ": 6152,
  "ĠtÃ½Å¾dÅĪa": 6153,
  "Ġ197": 6154,
  "istky": 6155,
  "Ġpovrchu": 6156,
  "oskop": 6157,
  "Ġterap": 6158,
  "Ġfial": 6159,
  "Ġreform": 6160,
  "16": 6161,
  "ĠinÃº": 6162,
  "ĠminulÃ½": 6163,
  "ĠbeÅ¾nÃ©": 6164,
  "Ġtvorbu": 6165,
  "Ġnenech": 6166,
  "Ġbubl": 6167,
  "ĠtvrdÃŃ": 6168,
  "Ġ=": 6169,
  "ĠzabezpeÄįenie": 6170,
  "ĠzachrÃ¡n": 6171,
  "Ġjabl": 6172,
  "ĠvysokÃ½ch": 6173,
  "ĠprÃŃrode": 6174,
  "ocÃºc": 6175,
  "17": 6176,
  "Ä¾ud": 6177,
  "Ġjazyka": 6178,
  "Ġhrud": 6179,
  "iteÄ¾nÃ¡": 6180,
  "ws": 6181,
  "niciam": 6182,
  "Ġscen": 6183,
  "Ġdvaja": 6184,
  "Ġsym": 6185,
  "Ġteploty": 6186,
  "Ġcup": 6187,
  "Ġpripravili": 6188,
  "zbroj": 6189,
  "Ġbanskej": 6190,
  "ĠmikulÃ¡Å¡": 6191,
  "Ġepi": 6192,
  "itÃ½ch": 6193,
  "lin": 6194,
  "Ġmenu": 6195,
  "Ġpobytu": 6196,
  "ĠpeknÃ½": 6197,
  "ÅĪam": 6198,
  "ĠspÃ¤t": 6199,
  "Ġdostanete": 6200,
  "ĠsÃºbory": 6201,
  "aÄįom": 6202,
  "ĠvÄįera": 6203,
  "ovacÃŃmi": 6204,
  "Ġetap": 6205,
  "omyseÄ¾": 6206,
  "slan": 6207,
  "ĠzÃ¡leÅ¾ÃŃ": 6208,
  "aval": 6209,
  "ivÃº": 6210,
  "nÃŃcku": 6211,
  "ĠzÃ¡kaznÃŃk": 6212,
  "istiky": 6213,
  "ĠzÃ¡vereÄį": 6214,
  "Ġdalo": 6215,
  "ĠuvaÅ¾": 6216,
  "atÃ³r": 6217,
  "Ġpomen": 6218,
  "ĠpredÄºÅ¾": 6219,
  "Ġkarty": 6220,
  "Ġsklam": 6221,
  "ĠdÄºÅ¾ka": 6222,
  "tku": 6223,
  "ĠsamotnÃ½": 6224,
  "ÃŃva": 6225,
  "ĠabsolÃºtne": 6226,
  "Ã¡rneho": 6227,
  "ĠÄįastÃŃ": 6228,
  "ĠroÄįnÃŃka": 6229,
  "Ġkoz": 6230,
  "Ġnejako": 6231,
  "ĠnaÅ¡iel": 6232,
  "Ġupokoj": 6233,
  "ĠdetskÃ©": 6234,
  "Ġkorun": 6235,
  "Ġpripomen": 6236,
  "adle": 6237,
  "ĠzaÅ¥aÅ¾": 6238,
  "ĠteÃ³r": 6239,
  "Åķ": 6240,
  "Ġsamozrejm": 6241,
  "ĠmÃ¤so": 6242,
  "ĠvyrobenÃ½": 6243,
  "Ġinteligent": 6244,
  "ĠpotlaÄį": 6245,
  "Ġfarbe": 6246,
  "Ġpsa": 6247,
  "Ã¡rnych": 6248,
  "ovanejÅ¡ÃŃch": 6249,
  "ĠstoroÄįÃŃ": 6250,
  "las": 6251,
  "tera": 6252,
  "nenÃŃm": 6253,
  "ĠnetuÅ¡": 6254,
  "Ġprokur": 6255,
  "ovskou": 6256,
  "ĠvydavateÄ¾": 6257,
  "ĠodstraÅĪ": 6258,
  "ovskÃŃ": 6259,
  "ĠefektÃŃvne": 6260,
  "ota": 6261,
  "cio": 6262,
  "ĠgarÃ¡Å¾": 6263,
  "cro": 6264,
  "ĠoÄįar": 6265,
  "Ġuniverzity": 6266,
  "Ã¡vacie": 6267,
  "Ġvypln": 6268,
  "Ġvenuje": 6269,
  "Ġdruhu": 6270,
  "Ã¡ky": 6271,
  "ĠopÃ½t": 6272,
  "ĠmyÅ¡": 6273,
  "Å¾u": 6274,
  "Ġboja": 6275,
  "ĠoknÃ¡": 6276,
  "Ġchron": 6277,
  "ĠsvieÅ¾": 6278,
  "nesie": 6279,
  "ĠzÃŃskali": 6280,
  "enostiach": 6281,
  "ĠodtieÅĪ": 6282,
  "Ġprojekty": 6283,
  "atÃ©": 6284,
  "Ġkontrolu": 6285,
  "ĠÄıalÅ¡ia": 6286,
  "Ġpriazniv": 6287,
  "ĠfaktÃºr": 6288,
  "Ġkoordin": 6289,
  "ĠvÄıaÄį": 6290,
  "Ġked": 6291,
  "ĠdojÄį": 6292,
  "ĠÅ¡kolu": 6293,
  "anejÅ¡ia": 6294,
  "Ġnajpod": 6295,
  "ĠstarÃ¡": 6296,
  "Ġsmut": 6297,
  "Ġjasne": 6298,
  "ĠdomÃ¡ce": 6299,
  "mestn": 6300,
  "anejÅ¡ou": 6301,
  "ĠpriateÄ¾ov": 6302,
  "Ġkonanie": 6303,
  "ĠmuÅ¾a": 6304,
  "acÃŃm": 6305,
  "Ġvybavenie": 6306,
  "ĠÅ¾ivotnÃ©": 6307,
  "ĠÅ¡portovÃ©": 6308,
  "iko": 6309,
  "Ġvonku": 6310,
  "Ġdozvie": 6311,
  "kladne": 6312,
  "ĠinÃ¡": 6313,
  "Ġdemokrat": 6314,
  "ĠuÄįeb": 6315,
  "Ġmis": 6316,
  "ĠÅ¡pin": 6317,
  "Ġpodujatie": 6318,
  "Ġslova": 6319,
  "Ãºcich": 6320,
  "istiek": 6321,
  "ĠtÃ©my": 6322,
  "ivÃ©ho": 6323,
  "ĠzÃ¡vod": 6324,
  "istkou": 6325,
  "ÃŃvna": 6326,
  "ĠkrÃŃdl": 6327,
  "enosÅ¥ami": 6328,
  "lÃ½": 6329,
  "ovskÃ©mu": 6330,
  "ĠÃºÄįinok": 6331,
  "Ġtuh": 6332,
  "bytok": 6333,
  "Ġorgan": 6334,
  "istku": 6335,
  "ust": 6336,
  "Ġslovak": 6337,
  "Ġ2009": 6338,
  "istke": 6339,
  "istkÃ¡m": 6340,
  "istkami": 6341,
  "ĠskÃºm": 6342,
  "ĠÃºÄįastnÃŃkov": 6343,
  "istkÃ¡ch": 6344,
  "ÅĪovanie": 6345,
  "Ġrap": 6346,
  "tion": 6347,
  "poziÄį": 6348,
  "Ġdunaj": 6349,
  "ĠvÃ½hrad": 6350,
  "ĠdievÄįat": 6351,
  "ĠzvÃ½Å¡iÅ¥": 6352,
  "atÃŃvnych": 6353,
  "iÄįa": 6354,
  "ĠkonaÅ¥": 6355,
  "Ġsuk": 6356,
  "Ġmesiaca": 6357,
  "Ã¡vanÃ©": 6358,
  "int": 6359,
  "ovitÃ½": 6360,
  "ĠobchodnÃ©": 6361,
  "Ġms": 6362,
  "ĠÅ¡uÅ¡": 6363,
  "vol": 6364,
  "ĠnemÃ¡te": 6365,
  "Ġset": 6366,
  "enostiam": 6367,
  "of": 6368,
  "last": 6369,
  "Ã¡rka": 6370,
  "anejÅ¡ieho": 6371,
  "ĠtakÃ©ho": 6372,
  "Ġobvin": 6373,
  "Ġpolovici": 6374,
  "Ġtvorbe": 6375,
  "sah": 6376,
  "ĠdospelÃ½ch": 6377,
  "ĠzÃ¡mk": 6378,
  "Ġdph": 6379,
  "Ġraj": 6380,
  "ovskÃ½mi": 6381,
  "Ġdiskut": 6382,
  "ĠzloÄįin": 6383,
  "Ġpredaja": 6384,
  "ĠdoÄįas": 6385,
  "Ã¡rska": 6386,
  "ĠvÃ½skumu": 6387,
  "ĠreklamÃ¡cie": 6388,
  "Ġnadobud": 6389,
  "Ġmusela": 6390,
  "rÃ¡b": 6391,
  "Ġnohav": 6392,
  "ÃŃd": 6393,
  "anejÅ¡ÃŃmi": 6394,
  "Ġbob": 6395,
  "Ġstriebor": 6396,
  "anejÅ¡ej": 6397,
  "ĠmyÅ¡lienky": 6398,
  "ĠzahraniÄįnÃ½ch": 6399,
  "Ġilustr": 6400,
  "Ġciest": 6401,
  "Ġromant": 6402,
  "ĠeurÃ³pskeho": 6403,
  "ente": 6404,
  "ĠsÃ©rie": 6405,
  "Ġvyzn": 6406,
  "ĠspracÃºv": 6407,
  "ĠsvieÄį": 6408,
  "ĠzakÃ¡z": 6409,
  "Ġbojov": 6410,
  "Ġpiesk": 6411,
  "Ġfre": 6412,
  "ĠstrÃ¡c": 6413,
  "anejÅ¡iu": 6414,
  "Ġflex": 6415,
  "ĠÄįierno": 6416,
  "ĠoÅ¾iv": 6417,
  "Ġbyto": 6418,
  "ĠdÃ´stoj": 6419,
  "Ġklimatiz": 6420,
  "avali": 6421,
  "istickou": 6422,
  "Ġprotest": 6423,
  "ĠchÃ½ba": 6424,
  "Ġpast": 6425,
  "ovane": 6426,
  "ĠlÃ´Å¾": 6427,
  "anejÅ¡om": 6428,
  "Ġoblastiach": 6429,
  "eÅ¥": 6430,
  "Ġokolie": 6431,
  "ovitÃ©": 6432,
  "Ġokul": 6433,
  "avame": 6434,
  "ĠvychÃ¡dza": 6435,
  "Ġokruh": 6436,
  "ĠmlieÄį": 6437,
  "Ġposed": 6438,
  "ÃŃvneho": 6439,
  "anejÅ¡iemu": 6440,
  "Ġkras": 6441,
  "hor": 6442,
  "Ġbrzd": 6443,
  "Ġumenia": 6444,
  "ÄĽ": 6445,
  "Ġagro": 6446,
  "ovanejÅ¡ÃŃm": 6447,
  "ĠsilnÃ©": 6448,
  "ĠÃºrok": 6449,
  "ĠrÃ½chlejÅ¡ie": 6450,
  "stran": 6451,
  "vav": 6452,
  "Ã¡nku": 6453,
  "ĠsituÃ¡cii": 6454,
  "ĠvÃ½bere": 6455,
  "ĠpomÃ¡hajÃº": 6456,
  "Ġcien": 6457,
  "Ġokolia": 6458,
  "teoret": 6459,
  "Ġzavol": 6460,
  "ikÃ¡m": 6461,
  "Ġchudob": 6462,
  "ĠobÃ¡": 6463,
  "avate": 6464,
  "Ġ:-)": 6465,
  "Ġjednotky": 6466,
  "ĠneskutoÄį": 6467,
  "Ġestet": 6468,
  "Ġnezao": 6469,
  "ĠdobrodruÅ¾": 6470,
  "ĠhlavnÃ©ho": 6471,
  "ĠpouÅ¾itia": 6472,
  "Ġutor": 6473,
  "ajÃºcu": 6474,
  "ĠvlastnÃ©ho": 6475,
  "ĠmodernÃ©": 6476,
  "ĠvyvÃ¡Å¾": 6477,
  "ĠjednoznaÄįne": 6478,
  "Ġpc": 6479,
  "Ġvariant": 6480,
  "iaceho": 6481,
  "volen": 6482,
  "ĠnÃ¡rodnÃ©ho": 6483,
  "Ġprof": 6484,
  "ĠposÃºd": 6485,
  "Ġ45": 6486,
  "ĠodporÃºÄįa": 6487,
  "tol": 6488,
  "Ġkomisia": 6489,
  "Ġanjel": 6490,
  "bor": 6491,
  "ĠchrÃ¡m": 6492,
  "Ġuv": 6493,
  "Äįiar": 6494,
  "okrac": 6495,
  "Ġkraja": 6496,
  "aniam": 6497,
  "Ġhrd": 6498,
  "istickom": 6499,
  "alite": 6500,
  "ĠnevÃ¡h": 6501,
  "Ġpostavy": 6502,
  "aÄįkami": 6503,
  "Ġjam": 6504,
  "Ġkor": 6505,
  "Ġinzer": 6506,
  "nÃ¡Å¡a": 6507,
  "Ġrozbeh": 6508,
  "ĠvnÃºtro": 6509,
  "ovanejÅ¡ÃŃ": 6510,
  "Ġlup": 6511,
  "Ġrozmery": 6512,
  "Ġhostia": 6513,
  "schÃ½n": 6514,
  "Ġpav": 6515,
  "Ġexkluz": 6516,
  "nÃŃckym": 6517,
  "ĠsystÃ©my": 6518,
  "ĠnehnuteÄ¾nosti": 6519,
  "Ġvoleb": 6520,
  "Ġ2008": 6521,
  "unk": 6522,
  "Ġsmie": 6523,
  "iÃ¡": 6524,
  "schop": 6525,
  "valc": 6526,
  "Ġpohybu": 6527,
  "Ġnajv": 6528,
  "Ġslobody": 6529,
  "Ġprepad": 6530,
  "ĠkombinÃ¡cii": 6531,
  "ĠmnoÅ¾stva": 6532,
  "Ġwc": 6533,
  "ĠbÃ¡z": 6534,
  "ker": 6535,
  "Ġhumor": 6536,
  "nenÃº": 6537,
  "rob": 6538,
  "Ġcookies": 6539,
  "Ġed": 6540,
  "eniny": 6541,
  "Ġprote": 6542,
  "Ġoznam": 6543,
  "Ġivan": 6544,
  "Ġjuraj": 6545,
  "ĠtechnickÃ©": 6546,
  "ĠÅ¡ikov": 6547,
  "lÃ½ch": 6548,
  "Ġinfo": 6549,
  "Ġvyslov": 6550,
  "ĠfinanÄįnÃ½ch": 6551,
  "Ġnepro": 6552,
  "ovacou": 6553,
  "otajÃºc": 6554,
  "Ġskrat": 6555,
  "ovanejÅ¡ia": 6556,
  "Ġopo": 6557,
  "Ġples": 6558,
  "iavaÅ¥": 6559,
  "Ġfiriem": 6560,
  "pes": 6561,
  "Ġpes": 6562,
  "Ġpraxi": 6563,
  "ĠÄıalÅ¡ieho": 6564,
  "Ġprebieha": 6565,
  "ivÃ½m": 6566,
  "Ġdrobno": 6567,
  "Ġpren": 6568,
  "ĠhodinÃ¡ch": 6569,
  "ĠÄı": 6570,
  "ĠbezÃº": 6571,
  "ĠpeÅ¡": 6572,
  "ĠfebruÃ¡ra": 6573,
  "Ġplem": 6574,
  "Ġodklad": 6575,
  "lou": 6576,
  "zdob": 6577,
  "ĠskÃºsenostÃŃ": 6578,
  "ovitÃ½ch": 6579,
  "Ġmodely": 6580,
  "Ġformy": 6581,
  "ĠpouÅ¾itÃŃm": 6582,
  "Å¡tru": 6583,
  "Ġhier": 6584,
  "ĠkomunikÃ¡cie": 6585,
  "Ġargument": 6586,
  "ĠprivÃŃt": 6587,
  "ens": 6588,
  "Ġletec": 6589,
  "Ġkuchyne": 6590,
  "sta": 6591,
  "ovanejÅ¡ou": 6592,
  "pos": 6593,
  "Ġprena": 6594,
  "ÃŃÄįka": 6595,
  "avala": 6596,
  "ĠchvÃŃli": 6597,
  "iaca": 6598,
  "Ġodp": 6599,
  "ĠnaÅĪ": 6600,
  "ĠtÃ½Å¾dÅĪov": 6601,
  "avaj": 6602,
  "acom": 6603,
  "ĠÅ¡tvrtok": 6604,
  "istickÃ½mi": 6605,
  "ĠnauÄįiÅ¥": 6606,
  "ĠemÃ³c": 6607,
  "ĠÃºnav": 6608,
  "ĠÄįoskoro": 6609,
  "Ġstvor": 6610,
  "ĠtÃ½mito": 6611,
  "ĠreÅ¾is": 6612,
  "Ġbaran": 6613,
  "Ġkrm": 6614,
  "Ġhlavnej": 6615,
  "ĠspoloÄįnosÅ¥ou": 6616,
  "ĠumoÅ¾nÃŃ": 6617,
  "Ġotca": 6618,
  "Ġturec": 6619,
  "Ġzmien": 6620,
  "ĠvÅ¡etkÃ©ho": 6621,
  "ĠzÃ¡kaznÃŃkom": 6622,
  "Ġze": 6623,
  "ĠnormÃ¡lne": 6624,
  "nd": 6625,
  "Ġvideli": 6626,
  "Ġkuchynsk": 6627,
  "Ġdojem": 6628,
  "Ã¡kmi": 6629,
  "Ġmojom": 6630,
  "Ġpet": 6631,
  "Ġdup": 6632,
  "ajÅ¡ÃŃ": 6633,
  "ĠprichÃ¡dz": 6634,
  "Ġoboj": 6635,
  "ĠprÃŃrodnÃ½ch": 6636,
  "ĠschopnÃ½": 6637,
  "ĠplatiÅ¥": 6638,
  "Ġkompon": 6639,
  "ĠmÃ¡rn": 6640,
  "ĠÅ¡trk": 6641,
  "ujÃºcu": 6642,
  "Ġsamostatne": 6643,
  "ĠzniÅ¾uje": 6644,
  "ung": 6645,
  "ĠzahÅķÅĪa": 6646,
  "ĠvykonÃ¡vaÅ¥": 6647,
  "Ġpokut": 6648,
  "Â®": 6649,
  "ĠakurÃ¡t": 6650,
  "Ġchyby": 6651,
  "ĠzvlÃ¡Å¡Å¥": 6652,
  "ovate": 6653,
  "vatelia": 6654,
  "ĠnemoÅ¾no": 6655,
  "ĠÅ¡est": 6656,
  "ovanejÅ¡ej": 6657,
  "Ġbas": 6658,
  "ĠnaÅ¡Å¥astie": 6659,
  "Ġnezre": 6660,
  "Ġsoch": 6661,
  "ovanejÅ¡ieho": 6662,
  "ovitej": 6663,
  "Ġjedla": 6664,
  "iteÄ¾nÃ½ch": 6665,
  "Ġpoistenie": 6666,
  "Ġunav": 6667,
  "nÃŃckymi": 6668,
  "Ġbiznis": 6669,
  "ovanejÅ¡ÃŃmi": 6670,
  "Ġ150": 6671,
  "Ġkeram": 6672,
  "ĠoÄįÃŃ": 6673,
  "ĠprÃŃsn": 6674,
  "Ġmur": 6675,
  "oroÄįne": 6676,
  "Ġmoci": 6677,
  "Ġpodvod": 6678,
  "ovanejÅ¡iu": 6679,
  "ĠbrÃºs": 6680,
  "ĠsÃ¡l": 6681,
  "Ġprisp": 6682,
  "kotÃºÄ¾": 6683,
  "Ġruku": 6684,
  "ĠnastÃºp": 6685,
  "Ġtat": 6686,
  "inÅ¾inier": 6687,
  "ovanejÅ¡om": 6688,
  "kazuje": 6689,
  "ĠÅ¡perk": 6690,
  "Ġcent": 6691,
  "Ġslep": 6692,
  "ĠdlhoroÄį": 6693,
  "Ġpoznat": 6694,
  "ĠprÃŃnos": 6695,
  "ĠjednoduchÃ¡": 6696,
  "ovitÃ¡": 6697,
  "Ġpresad": 6698,
  "ĠinÅ¡titÃº": 6699,
  "Ġjazyku": 6700,
  "ld": 6701,
  "enca": 6702,
  "ĠspraviÅ¥": 6703,
  "iame": 6704,
  "ĠteÅ¡iÅ¥": 6705,
  "ovanejÅ¡iemu": 6706,
  "Ã¡tom": 6707,
  "Ġslovan": 6708,
  "ĠzÃ¡pase": 6709,
  "ĠfÃ³li": 6710,
  "ĠbezvÃ½": 6711,
  "Ġkrat": 6712,
  "ĠsvedÄį": 6713,
  "Ġvzd": 6714,
  "avam": 6715,
  "aÄįkÃ¡ch": 6716,
  "Ġbon": 6717,
  "Äįeka": 6718,
  "Ġpoh": 6719,
  "Ġpoplatok": 6720,
  "Ġhyper": 6721,
  "nÃŃcki": 6722,
  "Ġpopred": 6723,
  "enc": 6724,
  "Ġstimul": 6725,
  "Ġblogu": 6726,
  "ĠsilnÃ½": 6727,
  "ĠvznikÃ¡": 6728,
  "Ġpoct": 6729,
  "ĠstretnutÃŃ": 6730,
  "Ġnechcem": 6731,
  "ĠdievÄįatÃ¡": 6732,
  "Ġnazv": 6733,
  "Ġmestskej": 6734,
  "Ġplochy": 6735,
  "ĠsÃºÅ¥aÅ¾i": 6736,
  "ĠjÃ¡na": 6737,
  "Ġserver": 6738,
  "Ġzrn": 6739,
  "nÃŃckou": 6740,
  "Ġpopol": 6741,
  "Ã¡rky": 6742,
  "ĠzostÃ¡va": 6743,
  "avalo": 6744,
  "Ġskontrol": 6745,
  "Ġochrana": 6746,
  "Ġpriestran": 6747,
  "ĠtvÃ¡re": 6748,
  "Ġorganizmu": 6749,
  "Ġkompet": 6750,
  "ĠzÃ¡kaznÃŃka": 6751,
  "avajte": 6752,
  "encom": 6753,
  "we": 6754,
  "Ġprep": 6755,
  "ovejÅ¡ie": 6756,
  "Ġbrn": 6757,
  "Ġmiestom": 6758,
  "iskami": 6759,
  "ĠÂ»": 6760,
  "ĠÅ¡tudenti": 6761,
  "ĠÅ¡portu": 6762,
  "Ġmatemat": 6763,
  "ĠvedenÃŃm": 6764,
  "Ġzjazd": 6765,
  "Ġvir": 6766,
  "ĠnÃ¡hl": 6767,
  "Ġcvik": 6768,
  "atia": 6769,
  "ĠspoÄįÃŃ": 6770,
  "ĠmeniÅ¥": 6771,
  "ĠdlaÅ¾": 6772,
  "ĠÄ¾udskÃ©": 6773,
  "avajÃºc": 6774,
  "avajme": 6775,
  "stev": 6776,
  "ĠÅ¡tet": 6777,
  "Ġac": 6778,
  "ĠtretÃŃ": 6779,
  "tradiÄį": 6780,
  "Ġpiatich": 6781,
  "Ã¶": 6782,
  "ovitÃ©ho": 6783,
  "kymi": 6784,
  "ĠskÃºsenosÅ¥": 6785,
  "ĠvyrobenÃ¡": 6786,
  "ĠzastÃºp": 6787,
  "nus": 6788,
  "nÃŃckemu": 6789,
  "Ġchrup": 6790,
  "Ġsortiment": 6791,
  "ĠzopÃ¡r": 6792,
  "Ġzanech": 6793,
  "Â´": 6794,
  "ĠvÃ´ÅĪa": 6795,
  "Ġnot": 6796,
  "Ġkorek": 6797,
  "Ġoslobod": 6798,
  "ĠÄįlÃ¡nky": 6799,
  "ĠveÄ¾kÃ©ho": 6800,
  "Ġstre": 6801,
  "Ġhreb": 6802,
  "Ġrastliny": 6803,
  "Ġvytvorenie": 6804,
  "80": 6805,
  "Ġdoplnky": 6806,
  "hlÃ¡s": 6807,
  "Ã¡rni": 6808,
  "ĠneÄıaleko": 6809,
  "ĠtaÅ¡": 6810,
  "avaÅ¡": 6811,
  "ris": 6812,
  "Ġmailom": 6813,
  "ovitom": 6814,
  "ĠÃºzemia": 6815,
  "ĠspÃ¡ja": 6816,
  "Ġmodul": 6817,
  "ĠpÃ¡l": 6818,
  "Ġhus": 6819,
  "ĠakÃ©ho": 6820,
  "Ġfarm": 6821,
  "suv": 6822,
  "ĠpouÅ¾itÃ©": 6823,
  "ore": 6824,
  "niteÄ¾": 6825,
  "Ġcudzo": 6826,
  "ĠneÄįist": 6827,
  "Ã¡rsku": 6828,
  "Ġkoho": 6829,
  "Ġsteny": 6830,
  "Ġzemia": 6831,
  "Ġ36": 6832,
  "Ġzdroje": 6833,
  "Ġneprav": 6834,
  "Ġrepublike": 6835,
  "Ã¡rskom": 6836,
  "vÃ½bav": 6837,
  "ĠzÃ¡kladom": 6838,
  "Ã³nsk": 6839,
  "Ġikon": 6840,
  "Ġorech": 6841,
  "ĠzÃ¡visÃŃ": 6842,
  "Ġrozd": 6843,
  "ĠvÃ¤ÄįÅ¡iu": 6844,
  "Ġinterpret": 6845,
  "Ġdovolenku": 6846,
  "ĠrieÅ¡enÃŃ": 6847,
  "trakt": 6848,
  "ĠbrankÃ¡r": 6849,
  "Ġtok": 6850,
  "vziaÅ¥": 6851,
  "Ġpokr": 6852,
  "bit": 6853,
  "Ġmatka": 6854,
  "Ġkolon": 6855,
  "Ġteoret": 6856,
  "Ġnepodo": 6857,
  "Ġnechajte": 6858,
  "Ġgrav": 6859,
  "ĠpodarÃŃ": 6860,
  "ĠbaktÃ©r": 6861,
  "ovitÃŃ": 6862,
  "ĠnastaviÅ¥": 6863,
  "Ġkvalite": 6864,
  "Ġdot": 6865,
  "ovitÃ½m": 6866,
  "Ġosobu": 6867,
  "Ġkontroly": 6868,
  "Ġocit": 6869,
  "ĠnevyhnutnÃ©": 6870,
  "Ġruke": 6871,
  "ĠstarÃ½ch": 6872,
  "ĠnÃ¡boÅ¾ensk": 6873,
  "zz": 6874,
  "Ġstih": 6875,
  "ovitÃº": 6876,
  "Ġtas": 6877,
  "ĠoficiÃ¡l": 6878,
  "ĠmnoÅ¾stvom": 6879,
  "berÃ¡": 6880,
  "ĠdodatoÄį": 6881,
  "ovitÃ½mi": 6882,
  "Ġzdo": 6883,
  "rd": 6884,
  "ĠzaujÃŃmavÃ½": 6885,
  "Ġmilan": 6886,
  "ĠoficiÃ¡lne": 6887,
  "ĠspojenÃ½ch": 6888,
  "ĠdÃ´vodom": 6889,
  "ĠeurÃ³pskych": 6890,
  "Ġrot": 6891,
  "Ġocel": 6892,
  "Ġpohon": 6893,
  "ient": 6894,
  "Ġizrael": 6895,
  "ovitou": 6896,
  "opol": 6897,
  "Ġvylep": 6898,
  "Ġnebudem": 6899,
  "ement": 6900,
  "ĠÅ¾ab": 6901,
  "itÃ¡m": 6902,
  "Ġhodnota": 6903,
  "istickÃ©mu": 6904,
  "istickÃŃ": 6905,
  "ĠÅ¡ok": 6906,
  "ico": 6907,
  "ĠÃºsil": 6908,
  "ovitÃ©mu": 6909,
  "ĠdarÄįek": 6910,
  "strÄį": 6911,
  "ĠvyÄįerp": 6912,
  "Ġsy": 6913,
  "Ġkilometrov": 6914,
  "Ġks": 6915,
  "ovaciemu": 6916,
  "ĠvÃ½skyt": 6917,
  "ĠduÅ¡ev": 6918,
  "ĠchodiÅ¥": 6919,
  "Ġkabel": 6920,
  "21": 6921,
  "Ġjoh": 6922,
  "Ġjemne": 6923,
  "ide": 6924,
  "ĠpodujatÃŃ": 6925,
  "ĠaplikÃ¡cia": 6926,
  "iot": 6927,
  "ĠnajobÄ¾Ãºb": 6928,
  "Ġagres": 6929,
  "ĠprejsÅ¥": 6930,
  "ĠzdravÃ©": 6931,
  "ĠÃºlohou": 6932,
  "rovna": 6933,
  "Ġtepla": 6934,
  "Ġvysvetl": 6935,
  "ĠorgÃ¡nov": 6936,
  "Ġmetod": 6937,
  "Ġnespol": 6938,
  "ĠnÃ¡hodou": 6939,
  "Ã¡Äįka": 6940,
  "gn": 6941,
  "Ãºnsk": 6942,
  "Ġovocie": 6943,
  "Ġdos": 6944,
  "ĠrozloÅ¾": 6945,
  "ale": 6946,
  "Ġinde": 6947,
  "Ġhd": 6948,
  "ĠvzdelÃ¡vanie": 6949,
  "Ġlabor": 6950,
  "ĠvÃŃna": 6951,
  "ĠÅ¡p": 6952,
  "Ã¡ly": 6953,
  "Ġskupine": 6954,
  "ĠsoÄ¾": 6955,
  "ĠkonÅ¡tat": 6956,
  "Ġuh": 6957,
  "Ġdiagnost": 6958,
  "Ġporaz": 6959,
  "Ġmigr": 6960,
  "Ġdodal": 6961,
  "aciu": 6962,
  "Ġkrem": 6963,
  "ĠvyplÃ½va": 6964,
  "Ġurobil": 6965,
  "atie": 6966,
  "Ġnaklad": 6967,
  "ĠÄıalÅ¡ÃŃmi": 6968,
  "Ġrekord": 6969,
  "ĠnajvÃ¤ÄįÅ¡ie": 6970,
  "ĠpoÅ¾iadaviek": 6971,
  "idlÃ¡": 6972,
  "ĠskÃºste": 6973,
  "ĠcÃ¡r": 6974,
  "Ġsko": 6975,
  "vzdel": 6976,
  "ĠzlepÅ¡enie": 6977,
  "Ġzmluvu": 6978,
  "Ġmesiacoch": 6979,
  "adlom": 6980,
  "ĠobrÃ¡zky": 6981,
  "nÃŃÄįku": 6982,
  "acou": 6983,
  "ĠspoluprÃ¡cu": 6984,
  "ĠzÃŃskala": 6985,
  "ĠvedÃº": 6986,
  "ĠpracovnÃ½": 6987,
  "ĠspoluprÃ¡ce": 6988,
  "lÃ¡d": 6989,
  "Ġtra": 6990,
  "Ġyou": 6991,
  "znamenÃ¡": 6992,
  "ĠÅ¡tÃºdium": 6993,
  "ĠvÃ½sledkov": 6994,
  "Ġparametre": 6995,
  "Ġtvorby": 6996,
  "199": 6997,
  "Ġdozor": 6998,
  "Ġstrop": 6999,
  "iacej": 7000,
  "ĠtÃ½Å¾den": 7001,
  "ĠvybavenÃ©": 7002,
  "Ġkef": 7003,
  "Ġnedostatok": 7004,
  "ĠvÃ½beru": 7005,
  "Ġnakup": 7006,
  "ĠbeÅ¾ne": 7007,
  "ĠklÃ¡v": 7008,
  "Ġnedar": 7009,
  "Ġzamysl": 7010,
  "Ã¡Äįikov": 7011,
  "aÄįkÃ¡m": 7012,
  "Ã¡rskym": 7013,
  "ĠchrÃ¡ni": 7014,
  "Ġnemen": 7015,
  "ĠtyÄį": 7016,
  "ĠhrÃ¡": 7017,
  "ĠÅ¡kody": 7018,
  "Ġ2000": 7019,
  "Ġobchode": 7020,
  "Ġradik": 7021,
  "ĠjedinÃ©": 7022,
  "ĠÅ¡vÃ©d": 7023,
  "vid": 7024,
  "ĠvoÄ¾by": 7025,
  "ĠÅ¡oÅ¡ov": 7026,
  "Ġpredmetom": 7027,
  "Ġhriech": 7028,
  "Ġastro": 7029,
  "Ġdopredu": 7030,
  "Ġvozidlo": 7031,
  "Ġpondelok": 7032,
  "ĠÄįrev": 7033,
  "iskÃ¡m": 7034,
  "ĠpotenciÃ¡l": 7035,
  "ĠobÄ¾ÃºbenÃ©": 7036,
  "Ġstriebr": 7037,
  "Ġpoliev": 7038,
  "ĠÄįiastoÄįne": 7039,
  "Ġmicro": 7040,
  "ĠvÃ½robca": 7041,
  "Ġhlave": 7042,
  "Ġhromad": 7043,
  "Ġasfalt": 7044,
  "ĠminulÃ©ho": 7045,
  "ĠjeseÅĪ": 7046,
  "Ġuspokoj": 7047,
  "Ġmoju": 7048,
  "nikov": 7049,
  "Ġzajtr": 7050,
  "enz": 7051,
  "smeÅ¡": 7052,
  "ĠpripravenÃ©": 7053,
  "Ġelast": 7054,
  "Ġholub": 7055,
  "Ġpriemys": 7056,
  "Ġchoroby": 7057,
  "Ġvystup": 7058,
  "ĠporadiÅ¥": 7059,
  "inovej": 7060,
  "ĠklÃ¡ves": 7061,
  "eje": 7062,
  "ĠvÃ½cvik": 7063,
  "24": 7064,
  "ence": 7065,
  "Ġvznikol": 7066,
  "lenÃ©": 7067,
  "ĠznÃ¡ma": 7068,
  "osrd": 7069,
  "ĠdlÅ¾": 7070,
  "Ġukazuje": 7071,
  "Ġga": 7072,
  "ĠpraÅ¾": 7073,
  "Ġtehoten": 7074,
  "ĠÃºhrad": 7075,
  "jav": 7076,
  "ĠvÃ½bav": 7077,
  "Ġpresu": 7078,
  "Ġlip": 7079,
  "Ġkarb": 7080,
  "Ġligy": 7081,
  "livÃ½": 7082,
  "ĠstlaÄį": 7083,
  "ĠporadÃŃ": 7084,
  "nel": 7085,
  "anu": 7086,
  "ĠumoÅ¾ÅĪujÃº": 7087,
  "Ġpodpory": 7088,
  "iÃ¡nsk": 7089,
  "ĠposkytujÃº": 7090,
  "jak": 7091,
  "ĠpÃŃl": 7092,
  "ĠpraktickÃ©": 7093,
  "Ã¡rskou": 7094,
  "ĠnÃ¡bytok": 7095,
  "Ġsystem": 7096,
  "Ġnajpro": 7097,
  "ĠvnÃºtra": 7098,
  "Ġlad": 7099,
  "Ġneur": 7100,
  "Ġkub": 7101,
  "Ã¡rskymi": 7102,
  "ĠvÃ½borne": 7103,
  "ĠzloÅ¾enie": 7104,
  "ĠprÃŃkaz": 7105,
  "ĠhlÃºp": 7106,
  "Ġsvetel": 7107,
  "ĠpriÅ¡lo": 7108,
  "Ġhovoria": 7109,
  "ĠkontaktovaÅ¥": 7110,
  "hanb": 7111,
  "acÃŃmi": 7112,
  "Ġmenom": 7113,
  "Ġslz": 7114,
  "Ġspojenie": 7115,
  "Ġexek": 7116,
  "ĠskupÃŃn": 7117,
  "Ġutrp": 7118,
  "oz": 7119,
  "ruÅ¡": 7120,
  "ĠnaruÅ¡": 7121,
  "Ġzhrub": 7122,
  "Ġhrb": 7123,
  "ĠdraÅ¾": 7124,
  "ĠblÃŃzko": 7125,
  "ĠbÃ¡bÃ¤t": 7126,
  "ianskejÅ¡ÃŃch": 7127,
  "ianskejÅ¡iu": 7128,
  "ianskejÅ¡ou": 7129,
  "ianskejÅ¡ÃŃmi": 7130,
  "ianskejÅ¡ÃŃm": 7131,
  "ianskejÅ¡ÃŃ": 7132,
  "ianskejÅ¡iemu": 7133,
  "ianskejÅ¡om": 7134,
  "ianskejÅ¡ia": 7135,
  "ianskejÅ¡ieho": 7136,
  "ianskejÅ¡ej": 7137,
  "ianskejÅ¡ie": 7138,
  "fa": 7139,
  "Ġrastlin": 7140,
  "ĠkrÃ¡sna": 7141,
  "ĠmÅķt": 7142,
  "Ã¡rskemu": 7143,
  "Ġzdrojom": 7144,
  "Ġtox": 7145,
  "Ġextern": 7146,
  "Ã¡rski": 7147,
  "Ġnebudete": 7148,
  "Ġdatab": 7149,
  "Ġspie": 7150,
  "ĠloÄı": 7151,
  "poÅ¾iÄį": 7152,
  "ĠÄ¾ub": 7153,
  "Ġlieky": 7154,
  "Ġct": 7155,
  "ĠtoÄį": 7156,
  "Ġposiel": 7157,
  "ĠsÃºÄįasnej": 7158,
  "Ġust": 7159,
  "Ġmiere": 7160,
  "Ġinom": 7161,
  "Ġriadne": 7162,
  "ĠbÃ¡": 7163,
  "podnik": 7164,
  "ivÃ½mi": 7165,
  "ometr": 7166,
  "Å¾ivot": 7167,
  "ĠzrÃ¡Å¾": 7168,
  "chyt": 7169,
  "Ġdanej": 7170,
  "ĠjesÅ¥": 7171,
  "atÃºr": 7172,
  "nuto": 7173,
  "Ġprirodzene": 7174,
  "inovÃ½": 7175,
  "ĠpohodlnÃ©": 7176,
  "ĠovlÃ¡danie": 7177,
  "ovateÄ¾om": 7178,
  "ĠÅ¡tÃ½le": 7179,
  "Ġobuv": 7180,
  "ĠnekoneÄį": 7181,
  "Ġnesmier": 7182,
  "Ġpredklad": 7183,
  "ĠspÃ´sobuje": 7184,
  "ĠhodÃŃ": 7185,
  "ĠteÅ¡ÃŃm": 7186,
  "inovÃ¡": 7187,
  "ĠsprÃŃstup": 7188,
  "Ġpripojenie": 7189,
  "Ġbulhar": 7190,
  "ĠspoloÄįnostÃŃ": 7191,
  "aÅ¥u": 7192,
  "Ġvychov": 7193,
  "Ġnezmen": 7194,
  "ĠvraÅ¾": 7195,
  "ĠideÃ¡lny": 7196,
  "Ġpovied": 7197,
  "roid": 7198,
  "ĠvÃ½luÄį": 7199,
  "Ġfla": 7200,
  "ĠvÃ½robe": 7201,
  "ĠpoÄ¾ov": 7202,
  "Ġwindo": 7203,
  "Ġuverej": 7204,
  "ĠtohtoroÄį": 7205,
  "ĠvyzeraÅ¥": 7206,
  "Ġdobrej": 7207,
  "nato": 7208,
  "kÃ¡z": 7209,
  "ĠpreukÃ¡z": 7210,
  "Ġprograme": 7211,
  "ĠprevaÅ¾ne": 7212,
  "Ã¡rna": 7213,
  "ĠvÄįas": 7214,
  "wer": 7215,
  "ĠÅ¡kolstva": 7216,
  "ĠrozmÃ½Å¡Ä¾": 7217,
  "ĠvÃ¤ÄįÅ¡ine": 7218,
  "Ġgarant": 7219,
  "ÃŃz": 7220,
  "Ġrefer": 7221,
  "Ġpat": 7222,
  "ĠvoÄ¾nÃ½": 7223,
  "Ġpotvrdz": 7224,
  "ĠÃºpravy": 7225,
  "nÃŃÄįkami": 7226,
  "Ġhranice": 7227,
  "Ġmore": 7228,
  "sahuje": 7229,
  "Ġprost": 7230,
  "ĠparÃŃÅ¾": 7231,
  "Ġsmartf": 7232,
  "Ġkola": 7233,
  "ivÃŃ": 7234,
  "Ġosobe": 7235,
  "Ġdezin": 7236,
  "Ġneprie": 7237,
  "Ġjazdy": 7238,
  "Ġprestav": 7239,
  "ĠpoboÄį": 7240,
  "ĠÅ¡ÃŃ": 7241,
  "kroÄįil": 7242,
  "Ġtmavo": 7243,
  "Ġtermo": 7244,
  "uÃ¡lne": 7245,
  "Ġkrajina": 7246,
  "ĠhmotnosÅ¥": 7247,
  "Ġ;": 7248,
  "ĠpracovnÃŃkov": 7249,
  "Ã¡vanÃŃm": 7250,
  "Ġhoteli": 7251,
  "ĠviacerÃ©": 7252,
  "omer": 7253,
  "ĠpripravenÃ½": 7254,
  "ĠneznÃ¡m": 7255,
  "inovÃ½ch": 7256,
  "Ġfantast": 7257,
  "predaj": 7258,
  "ĠnÃ¡roÄįnÃ©": 7259,
  "Ġzime": 7260,
  "ĠvzruÅ¡": 7261,
  "komu": 7262,
  "ĠvzÅ¥ahov": 7263,
  "Ġtax": 7264,
  "ĠtreÅ¥": 7265,
  "Ġobaja": 7266,
  "Ġisto": 7267,
  "ĠÄįert": 7268,
  "ĠpotrebovaÅ¥": 7269,
  "ĠindividuÃ¡lne": 7270,
  "Ġzav": 7271,
  "ĠnaznaÄį": 7272,
  "Ġchalan": 7273,
  "ĠÅ¡krob": 7274,
  "Ġpribud": 7275,
  "ĠpoÅ¾iÄį": 7276,
  "Ġvytrv": 7277,
  "domÃ¡c": 7278,
  "Ã¡ku": 7279,
  "Ġgitar": 7280,
  "Ġvplyvom": 7281,
  "ox": 7282,
  "Ġpenzi": 7283,
  "ĠsezÃ³ne": 7284,
  "ĠsystÃ©me": 7285,
  "ĠzjednoduÅ¡": 7286,
  "Ġnajneo": 7287,
  "krvav": 7288,
  "Ġsmere": 7289,
  "ĠaplikÃ¡ciu": 7290,
  "ĠfinÃ¡le": 7291,
  "Ġobi": 7292,
  "ĠpolÃŃcia": 7293,
  "Ġbreh": 7294,
  "ivou": 7295,
  "ĠudrÅ¾aÅ¥": 7296,
  "ĠdvakrÃ¡t": 7297,
  "ĠdÃ¡vaÅ¥": 7298,
  "ĠbrigÃ¡d": 7299,
  "Ġpoky": 7300,
  "ĠvÃŃt": 7301,
  "Äįiark": 7302,
  "Ġzasa": 7303,
  "ĠÅ¾ijÃº": 7304,
  "Ġosam": 7305,
  "Ġprever": 7306,
  "vor": 7307,
  "ĠzÃ¡Å¥aÅ¾": 7308,
  "ÃŃvnu": 7309,
  "Ġnezn": 7310,
  "ĠvÃ½robok": 7311,
  "ĠinformovaÅ¥": 7312,
  "ĠÅ¾ivotnosÅ¥": 7313,
  "pracov": 7314,
  "aÄįe": 7315,
  "Ġliber": 7316,
  "ĠprÃŃjemne": 7317,
  "Ġvedy": 7318,
  "ĠmedzinÃ¡rodnej": 7319,
  "ĠatraktÃŃv": 7320,
  "Ġusad": 7321,
  "ĠÅ¾r": 7322,
  "ĠprÃŃbehu": 7323,
  "anta": 7324,
  "aniami": 7325,
  "ĠpreÄįÃŃtaÅ¥": 7326,
  "ĠroÄįne": 7327,
  "Ġmari": 7328,
  "Ġpotvrdenie": 7329,
  "ĠnemÃ´Å¾u": 7330,
  "Ġprezidenta": 7331,
  "Ġcigar": 7332,
  "ĠlÃ¡ske": 7333,
  "ovkÃ¡ch": 7334,
  "Ġvytvorili": 7335,
  "expon": 7336,
  "Ġtasr": 7337,
  "ĠlondÃ½n": 7338,
  "ĠtuÅ¡": 7339,
  "Ġnor": 7340,
  "ĠÅ¡tiep": 7341,
  "lÃŃÅ¡": 7342,
  "ĠrozlÃŃÅ¡": 7343,
  "Äįekov": 7344,
  "Ġmlieko": 7345,
  "Ġcyk": 7346,
  "Ġplatby": 7347,
  "ĠsluÅ¾ob": 7348,
  "ÃŃvu": 7349,
  "Ã¡rku": 7350,
  "Ġrezort": 7351,
  "Ġtretej": 7352,
  "chov": 7353,
  "Ġuchov": 7354,
  "ĠapoÅ¡tol": 7355,
  "ĠreÃ¡lne": 7356,
  "Ġflexibil": 7357,
  "Ġnemysl": 7358,
  "Ġracion": 7359,
  "ĠvÃ½robcov": 7360,
  "ĠzdruÅ¾enia": 7361,
  "Ġkolen": 7362,
  "ĠhorÅ¡ie": 7363,
  "Ġiste": 7364,
  "itÃ¡": 7365,
  "fe": 7366,
  "ĠkatalÃ³g": 7367,
  "Ġdut": 7368,
  "Ġdohody": 7369,
  "ĠrastlÃŃn": 7370,
  "Ġchrast": 7371,
  "Ġandrej": 7372,
  "ĠfolklÃ³r": 7373,
  "ĠnaÅ¡ou": 7374,
  "ĠÄįokoÄ¾vek": 7375,
  "mkÃ½n": 7376,
  "Ġzah": 7377,
  "ĠzÃ¡pasu": 7378,
  "Ġlipt": 7379,
  "Ġmama": 7380,
  "Ġtrakt": 7381,
  "Ġhu": 7382,
  "Ġodbornej": 7383,
  "Ġetn": 7384,
  "Ġzamil": 7385,
  "Ġumiestnenie": 7386,
  "Ġkanad": 7387,
  "Ġverzia": 7388,
  "Ġzmluva": 7389,
  "Ġpokles": 7390,
  "Ġnepatr": 7391,
  "Ã¡reÅĪ": 7392,
  "ĠdruhÃ½m": 7393,
  "ĠsÃºhlasu": 7394,
  "ĠnavzÃ¡jom": 7395,
  "Ġprvkov": 7396,
  "Ġbieliz": 7397,
  "ovce": 7398,
  "ĠkandidÃ¡t": 7399,
  "Ġegypt": 7400,
  "konÅ¡tru": 7401,
  "Ġmalej": 7402,
  "Ġmiery": 7403,
  "ativ": 7404,
  "ĠhlavnÃ½ch": 7405,
  "ĠmieÅ¡": 7406,
  "Ġbelas": 7407,
  "ovnÃŃk": 7408,
  "iniek": 7409,
  "Ġomnoho": 7410,
  "Ġbytov": 7411,
  "ĠvidÃŃm": 7412,
  "Ġhlavnou": 7413,
  "relevant": 7414,
  "ĠodkiaÄ¾": 7415,
  "Ġpu": 7416,
  "ĠzÃ¡ujm": 7417,
  "ĠrozhodnÃºÅ¥": 7418,
  "Ġneviete": 7419,
  "22": 7420,
  "ĠwebovÃ½ch": 7421,
  "Ġkrimin": 7422,
  "tec": 7423,
  "ĠvÃ½berom": 7424,
  "Ã©m": 7425,
  "Ġsyna": 7426,
  "ĠfÃ³r": 7427,
  "Ġchrap": 7428,
  "ĠnemÃ´Å¾em": 7429,
  "ĠhistÃ³rie": 7430,
  "Ġnul": 7431,
  "ĠÄįakaÅ¥": 7432,
  "Ġstrap": 7433,
  "Ġakc": 7434,
  "Ġpodpora": 7435,
  "Ġperl": 7436,
  "Ġ2007": 7437,
  "mysl": 7438,
  "ĠrovnakÃ½": 7439,
  "Ġtesne": 7440,
  "Ġhnev": 7441,
  "ĠprÃŃprava": 7442,
  "nÃŃÄįkou": 7443,
  "ĠslovÃ¡kov": 7444,
  "ĠlÃŃd": 7445,
  "ĠprÃŃpadov": 7446,
  "Ġstrm": 7447,
  "Ġfix": 7448,
  "Ġkaz": 7449,
  "Ġode": 7450,
  "Ġlicenc": 7451,
  "ĠvÃ´n": 7452,
  "ĠschÃ´dz": 7453,
  "ĠvÃ½voja": 7454,
  "Ġpriestore": 7455,
  "ĠkvalitnÃ½ch": 7456,
  "ĠvÃŃrus": 7457,
  "ovÃ½chod": 7458,
  "ĠdÃ´leÅ¾itÃ¡": 7459,
  "ĠznÃ¡mych": 7460,
  "Ġexpert": 7461,
  "Ġarci": 7462,
  "Ġ193": 7463,
  "Ġtrid": 7464,
  "ĠtechnolÃ³giÃŃ": 7465,
  "Ã¡rok": 7466,
  "Ġvyhodnot": 7467,
  "sc": 7468,
  "ĠuÅ¾ÃŃvaÅ¥": 7469,
  "avosti": 7470,
  "vahu": 7471,
  "ĠnaÅ¡la": 7472,
  "Ġslovami": 7473,
  "ĠpostaviÅ¥": 7474,
  "ĠdÃ´leÅ¾itÃ½": 7475,
  "ĠchÃ½baÅ¥": 7476,
  "ĠroÄįnÃ½": 7477,
  "Ġiv": 7478,
  "ĠdokÃ¡zali": 7479,
  "ĠodvÃ¡Å¾": 7480,
  "rÃ¡st": 7481,
  "Ġprenik": 7482,
  "iarensk": 7483,
  "Ġkav": 7484,
  "poludn": 7485,
  "Ġposun": 7486,
  "ĠchcieÅ¥": 7487,
  "ĠÄįosi": 7488,
  "ĠverejnÃ½ch": 7489,
  "Ġstere": 7490,
  "lie": 7491,
  "ĠrodinnÃ½": 7492,
  "Ġnato": 7493,
  "ĠmiestnosÅ¥": 7494,
  "oÅ¾": 7495,
  "ĠdrÃ´t": 7496,
  "Ã©rov": 7497,
  "ovni": 7498,
  "ĠkriÅ¾": 7499,
  "ĠgenerÃ¡cie": 7500,
  "Ġoleja": 7501,
  "ĠnestaÄį": 7502,
  "ĠnetradiÄį": 7503,
  "Ġsit": 7504,
  "ĠpouÄį": 7505,
  "ĠtlaÄįidlo": 7506,
  "ĠzaÄįÃŃnajÃº": 7507,
  "Ġhudba": 7508,
  "ĠvÃŃz": 7509,
  "Ġsokol": 7510,
  "ĠcviÄįenie": 7511,
  "Ġlehote": 7512,
  "ĠprÃŃbuz": 7513,
  "ĠomÅ¡": 7514,
  "stalo": 7515,
  "ĠbudeÅ¡": 7516,
  "Ġorganizmus": 7517,
  "aciemu": 7518,
  "Ġneexistuje": 7519,
  "ĠmesteÄį": 7520,
  "Ġblesk": 7521,
  "sviedÄį": 7522,
  "Ã¡rke": 7523,
  "Ġreduk": 7524,
  "Ġplatform": 7525,
  "ĠchorvÃ¡t": 7526,
  "ĠÅ¾obr": 7527,
  "ĠhrÄį": 7528,
  "fikov": 7529,
  "ĠkomerÄį": 7530,
  "Ġline": 7531,
  "Ġvybrali": 7532,
  "Ġteror": 7533,
  "Ġklienta": 7534,
  "Ġbiele": 7535,
  "Ã¡rkou": 7536,
  "ĠdverÃŃ": 7537,
  "Ġ%.": 7538,
  "ĠlekÃ¡ra": 7539,
  "Ġ195": 7540,
  "Ġobhaj": 7541,
  "Ã¡koch": 7542,
  "ĠponÃºknuÅ¥": 7543,
  "Ġdoter": 7544,
  "Ġoba": 7545,
  "ĠvÃ½robcu": 7546,
  "olÃ³gia": 7547,
  "Ġobidv": 7548,
  "ĠhasiÄį": 7549,
  "ĠmetÃ³dy": 7550,
  "Ġnepozn": 7551,
  "ĠvÃ½hr": 7552,
  "ĠÄįastejÅ¡ie": 7553,
  "Ġpolitiky": 7554,
  "liat": 7555,
  "ĠzapÃŃn": 7556,
  "ĠpouÅ¾ÃŃvania": 7557,
  "ĠodstrÃ¡nenie": 7558,
  "ateÄ¾nÃ©": 7559,
  "enku": 7560,
  "ĠmladÃŃ": 7561,
  "Ġizieb": 7562,
  "Ġpocity": 7563,
  "Ġharry": 7564,
  "Ġfit": 7565,
  "Ġstoja": 7566,
  "ĠnechÃ¡p": 7567,
  "ickosÅ¥": 7568,
  "alizovaÅ¥": 7569,
  "ĠsÃºprav": 7570,
  "Ġtis": 7571,
  "ĠfotoaparÃ¡t": 7572,
  "ĠsnaÅ¾ia": 7573,
  "ĠpoÄįasia": 7574,
  "Ġhomo": 7575,
  "Ġdebat": 7576,
  "Ġrozpor": 7577,
  "ĠfarebnÃ©": 7578,
  "ĠvÃ½Å¡ku": 7579,
  "Ġjarab": 7580,
  "fÃºka": 7581,
  "Ġbonus": 7582,
  "Å¡iemu": 7583,
  "Ġhodnotenie": 7584,
  "aÅ¥om": 7585,
  "ĠÂ°": 7586,
  "Ġis": 7587,
  "mbri": 7588,
  "ĠÅ¡kÃ¡l": 7589,
  "Äįin": 7590,
  "ĠvÃ½nimkou": 7591,
  "Ġnaja": 7592,
  "ĠÄıalÅ¡ej": 7593,
  "Ġzhruba": 7594,
  "cha": 7595,
  "ĠfotografiÃŃ": 7596,
  "ĠsluÅ¾ba": 7597,
  "ĠstÃ¡l": 7598,
  "ĠvyuÅ¾ÃŃvajÃº": 7599,
  "kombin": 7600,
  "itÃº": 7601,
  "ĠÅ¡ep": 7602,
  "ĠsÃºboj": 7603,
  "ĠakadÃ©m": 7604,
  "ĠobzvlÃ¡Å¡Å¥": 7605,
  "Ġsklo": 7606,
  "ĠprÃ¡vne": 7607,
  "Ġrokom": 7608,
  "ĠÄįistenie": 7609,
  "ĠkombinÃ¡cia": 7610,
  "dor": 7611,
  "ĠÃºsmev": 7612,
  "Ġwindows": 7613,
  "ĠprÃŃjemnÃ½": 7614,
  "Ġva": 7615,
  "teÄ¾nÃ©": 7616,
  "ĠprenÃ¡jom": 7617,
  "Ġgest": 7618,
  "ĠklasickÃ©": 7619,
  "itie": 7620,
  "ĠchvÃŃle": 7621,
  "Ġtehl": 7622,
  "Ġnajprie": 7623,
  "Ġodvetv": 7624,
  "Ġtemp": 7625,
  "ĠznÃ¡": 7626,
  "Ġozbroj": 7627,
  "nÃŃÄįok": 7628,
  "ĠvÃ½robku": 7629,
  "ĠÅ¾iaden": 7630,
  "enciÃŃ": 7631,
  "Ġpacient": 7632,
  "encami": 7633,
  "Ġele": 7634,
  "mar": 7635,
  "ĠÃºkon": 7636,
  "ĠpÃ¡tr": 7637,
  "Ã¡rkach": 7638,
  "Ġduchu": 7639,
  "Ġkozm": 7640,
  "ĠvykonaÅ¥": 7641,
  "ĠprijaÅ¥": 7642,
  "ĠÅ¡tÃ¡ty": 7643,
  "ĠoÄįami": 7644,
  "Ã¡rkami": 7645,
  "ĠpripomÃŃna": 7646,
  "Ġchlp": 7647,
  "Ġbalenie": 7648,
  "Ã¡rkam": 7649,
  "ĠhrÃºb": 7650,
  "eckÃ©": 7651,
  "ĠkupujÃºcemu": 7652,
  "ĠvysokÃ½m": 7653,
  "inku": 7654,
  "ĠvoÅĪ": 7655,
  "Ġwe": 7656,
  "Ġsho": 7657,
  "idiel": 7658,
  "ĠpracovnÃ©ho": 7659,
  "tal": 7660,
  "our": 7661,
  "ĠÃºzemie": 7662,
  "ĠzÃ¡ruÄį": 7663,
  "ĠzÃ¡loÅ¾": 7664,
  "Ġspad": 7665,
  "ĠcitrÃ³n": 7666,
  "ĠnÃ¡raz": 7667,
  "nutÃ©ho": 7668,
  "Ġformu": 7669,
  "ĠmyslÃŃ": 7670,
  "Ġfirem": 7671,
  "Ġkampan": 7672,
  "Ġmodelu": 7673,
  "ĠzvieratÃ¡": 7674,
  "Ġteplota": 7675,
  "Ġcd": 7676,
  "lam": 7677,
  "ĠkonanÃŃ": 7678,
  "ĠÃºÄįtu": 7679,
  "ĠÄįech": 7680,
  "Ġpetra": 7681,
  "Ġozv": 7682,
  "Ġturb": 7683,
  "Ġposlednom": 7684,
  "loÅ¾iÅ¥": 7685,
  "ĠhorÃºÄį": 7686,
  "ĠdÅĪom": 7687,
  "ĠvnÃºtornÃ©": 7688,
  "Ġbabr": 7689,
  "ĠprÃŃdu": 7690,
  "ĠÄ¾ahÅ¡ie": 7691,
  "ĠzloÅ¾ky": 7692,
  "Ġtrvalo": 7693,
  "upln": 7694,
  "telefon": 7695,
  "ĠbÃ½vanie": 7696,
  "ĠprÃŃspevku": 7697,
  "ĠodbornÃŃkov": 7698,
  "oterapeut": 7699,
  "ĠstraÅ¡ne": 7700,
  "ĠspÃ´sobiÅ¥": 7701,
  "iÃ¡n": 7702,
  "ovkami": 7703,
  "Ġprefer": 7704,
  "iacim": 7705,
  "Ã¡lno": 7706,
  "Ġkole": 7707,
  "Ġmix": 7708,
  "ĠÅ¡tefan": 7709,
  "veliÄį": 7710,
  "Ġpsov": 7711,
  "ĠÅ¡kolÃ¡ch": 7712,
  "Ġdepres": 7713,
  "Ġprogramov": 7714,
  "Ġnah": 7715,
  "ĠpÃ´vodnÃ©ho": 7716,
  "radost": 7717,
  "ĠdoporuÄį": 7718,
  "ĠinÃŃ": 7719,
  "ĠterÃ©": 7720,
  "ĠbudÃºcnosÅ¥": 7721,
  "Ġtoalet": 7722,
  "Ġmene": 7723,
  "ĠnÃ¡rast": 7724,
  "tenzÃŃv": 7725,
  "ciach": 7726,
  "fektÃŃv": 7727,
  "Ġnaplno": 7728,
  "Äįekom": 7729,
  "ĠÃ¡z": 7730,
  "fik": 7731,
  "ĠvÃ½roba": 7732,
  "Ġslnko": 7733,
  "Ġneodpo": 7734,
  "ĠdlhÃº": 7735,
  "ĠpodaÅ¥": 7736,
  "ĠpozostÃ¡va": 7737,
  "ĠÅ¾ivoto": 7738,
  "gy": 7739,
  "ĠÅ¡tudij": 7740,
  "Ġlekt": 7741,
  "pÃŃsaÅ¥": 7742,
  "ĠnÃ¡drÅ¾": 7743,
  "Ġmetal": 7744,
  "bral": 7745,
  "ateÄ¾om": 7746,
  "ĠkritÃ©ri": 7747,
  "Ġprogramy": 7748,
  "ĠÄ¾Ãºt": 7749,
  "ĠznÃŃÅ¾iÅ¥": 7750,
  "Ġstrh": 7751,
  "nÃŃÄįke": 7752,
  "Ġpraxe": 7753,
  "zadu": 7754,
  "ĠlieÄįbu": 7755,
  "Ġdoplnok": 7756,
  "Ġplec": 7757,
  "ĠzaÄįiatoÄį": 7758,
  "Ġvibr": 7759,
  "Ġsympat": 7760,
  "frajer": 7761,
  "ĠtrÃ©ningu": 7762,
  "ĠvankÃºÅ¡": 7763,
  "ĠslovenÄį": 7764,
  "ĠÅ¡ablÃ³n": 7765,
  "Ġrozpad": 7766,
  "ki": 7767,
  "Ġuprat": 7768,
  "ĠpobreÅ¾": 7769,
  "Ġobklad": 7770,
  "ĠzdruÅ¾enie": 7771,
  "ĠodporuÄį": 7772,
  "ĠzastÃ¡v": 7773,
  "ĠskvelÃº": 7774,
  "Å¥ahoval": 7775,
  "ĠvrÃ¡s": 7776,
  "ĠcibuÄ¾": 7777,
  "Ġdorast": 7778,
  "Ġrozklad": 7779,
  "Ġarab": 7780,
  "nÃŃÄįkam": 7781,
  "Ġdym": 7782,
  "Ġkrp": 7783,
  "Ġelit": 7784,
  "Ġbiela": 7785,
  "Ġzdravotnej": 7786,
  "Ġtrpez": 7787,
  "ĠstÃ´l": 7788,
  "ujÃºcimi": 7789,
  "ĠprÃŃbehy": 7790,
  "ĠnÃ¡vÅ¡tevu": 7791,
  "Ġparlamentu": 7792,
  "Ã¡p": 7793,
  "Ġkapust": 7794,
  "ĠplÃ¡v": 7795,
  "ĠotÃ¡Äį": 7796,
  "Ġplatob": 7797,
  "Ġkoles": 7798,
  "Ġciele": 7799,
  "Ġnevhod": 7800,
  "Ġmatr": 7801,
  "Ġjaskyn": 7802,
  "kovanÃ©": 7803,
  "ĠÅ¾lÄį": 7804,
  "ĠbojovaÅ¥": 7805,
  "ĠnÃ¡bytku": 7806,
  "iteÄ¾nou": 7807,
  "Ġkontaktujte": 7808,
  "ivÃ©mu": 7809,
  "Ġzips": 7810,
  "Ġkvety": 7811,
  "ujÃºcom": 7812,
  "ĠÅ¡Ä¾acht": 7813,
  "Ġzried": 7814,
  "Ġnadmer": 7815,
  "ĠnÃ¡zory": 7816,
  "ĠvyvÃŃj": 7817,
  "ĠzaisÅ¥": 7818,
  "ĠpÃ´jde": 7819,
  "ĠÅ¡portov": 7820,
  "nÃŃÄįkach": 7821,
  "Ġsumu": 7822,
  "vad": 7823,
  "Ġsliz": 7824,
  "ĠnajvÃ¤ÄįÅ¡ÃŃm": 7825,
  "ĠzisÅ¥": 7826,
  "Ġdaniel": 7827,
  "ĠkÃ´r": 7828,
  "Ġpotrieb": 7829,
  "Ġud": 7830,
  "Ġhypo": 7831,
  "niÄįku": 7832,
  "ĠpamÃ¤ti": 7833,
  "ley": 7834,
  "Ġdomova": 7835,
  "ĠÅ¡vajÄįiar": 7836,
  "ĠverÃŃme": 7837,
  "Ġakv": 7838,
  "anosti": 7839,
  "Ġvyhotov": 7840,
  "ĠÄįisto": 7841,
  "cemu": 7842,
  "Ġaz": 7843,
  "ĠagentÃºra": 7844,
  "Ã³za": 7845,
  "ĠpoÄįia": 7846,
  "ĠcestÃ¡ch": 7847,
  "ÄįnÃ½ch": 7848,
  "Ġtemat": 7849,
  "Ġkonferencie": 7850,
  "Ġosobnosti": 7851,
  "ĠnÃ¡stroje": 7852,
  "ĠfaloÅ¡": 7853,
  "ĠobrÃ¡zok": 7854,
  "Ġobsiah": 7855,
  "ÃŃvnym": 7856,
  "ial": 7857,
  "ĠprestÃ¡v": 7858,
  "ĠrozliÄįn": 7859,
  "ĠochorenÃŃ": 7860,
  "ĠvaÅ¡im": 7861,
  "ĠnavÅ¡tev": 7862,
  "Ġodpovede": 7863,
  "ĠzboÅ¾": 7864,
  "Ġpracovnej": 7865,
  "kast": 7866,
  "pÄºÅĪajÃº": 7867,
  "Ġput": 7868,
  "Ġlatin": 7869,
  "ĠhistÃ³rii": 7870,
  "ĠukÃ¡zaÅ¥": 7871,
  "Ġrozvi": 7872,
  "ĠzdravotnÃ©": 7873,
  "port": 7874,
  "iarov": 7875,
  "Ġblat": 7876,
  "Ġvt": 7877,
  "Ġobsluh": 7878,
  "nutÃº": 7879,
  "Ġzdob": 7880,
  "ĠcviÄįenia": 7881,
  "nuli": 7882,
  "ĠdisciplÃŃn": 7883,
  "ĠostatnÃŃ": 7884,
  "Ġpostele": 7885,
  "ivosti": 7886,
  "iari": 7887,
  "ĠmÃ½t": 7888,
  "Ġfestivalu": 7889,
  "iÅ¡iel": 7890,
  "ĠrukÃ¡ch": 7891,
  "ĠpremÃ¡v": 7892,
  "Ġbrez": 7893,
  "Ġemis": 7894,
  "Ġadvok": 7895,
  "Ġnezamestn": 7896,
  "Ġhudbu": 7897,
  "Ġveget": 7898,
  "ĠprimÃ¡tor": 7899,
  "ĠobjednÃ¡vku": 7900,
  "Ġvirtu": 7901,
  "ĠstarÃ½": 7902,
  "Ġhmotnosti": 7903,
  "ĠneÅ¾iad": 7904,
  "Ġzhor": 7905,
  "Ġzahrn": 7906,
  "Ġsvah": 7907,
  "ĠkolÃ¡Äį": 7908,
  "Ġadam": 7909,
  "Ġrop": 7910,
  "ĠdolÃ¡rov": 7911,
  "ĠjeÅ¾iÅ¡a": 7912,
  "ĠpamÃ¤Å¥": 7913,
  "ĠzlepÅ¡iÅ¥": 7914,
  "Ġcukor": 7915,
  "ĠpomÃ´Å¾u": 7916,
  "ĠnajznÃ¡m": 7917,
  "Ġhml": 7918,
  "ĠmÃºzeum": 7919,
  "Ġzboru": 7920,
  "ĠoÄįist": 7921,
  "ĠsprÃ¡vanie": 7922,
  "ĠprÃŃprave": 7923,
  "ciÃ¡m": 7924,
  "Ġohn": 7925,
  "ĠrozpoÄįtu": 7926,
  "Ġlisty": 7927,
  "Ġnastavenie": 7928,
  "Ġodhodl": 7929,
  "2017": 7930,
  "ĠjedinÃ¡": 7931,
  "Ġdres": 7932,
  "Ġumenie": 7933,
  "ĠchceÅ¡": 7934,
  "Ġbuniek": 7935,
  "):": 7936,
  "ĠÅ¡ed": 7937,
  "ĠvylepÅ¡": 7938,
  "ix": 7939,
  "ĠveÄ¾kom": 7940,
  "stupÅĪ": 7941,
  "ĠakciÃŃ": 7942,
  "ĠznÃŃÅ¾enie": 7943,
  "ĠnemÃ¡me": 7944,
  "Ġbezod": 7945,
  "ĠvyzÃ½v": 7946,
  "ĠvyÅ¾iad": 7947,
  "Ġnajre": 7948,
  "Ġizba": 7949,
  "Ġokien": 7950,
  "Äįiac": 7951,
  "ĠÃºstred": 7952,
  "izÃ¡cii": 7953,
  "rektor": 7954,
  "ĠmladÃ½": 7955,
  "ologickÃ½": 7956,
  "Ġcuk": 7957,
  "ĠuÄįiÅ¥": 7958,
  "omu": 7959,
  "ienok": 7960,
  "oved": 7961,
  "Ġzvolen": 7962,
  "Ġapple": 7963,
  "23": 7964,
  "Ġstanice": 7965,
  "Ġhlavou": 7966,
  "Ġhnut": 7967,
  "ĠzakonÄį": 7968,
  "ĠfinanciÃŃ": 7969,
  "ĠsprÃ¡vneho": 7970,
  "ĠÅ¡pekul": 7971,
  "ĠnedokÃ¡z": 7972,
  "Ġprebud": 7973,
  "itÃŃvne": 7974,
  "ÃŃÄįek": 7975,
  "Ġpoj": 7976,
  "ĠdÃ¡ta": 7977,
  "Ġubytovania": 7978,
  "ĠtentokrÃ¡t": 7979,
  "ologickÃ©ho": 7980,
  "ĠtvÃ¡ri": 7981,
  "ĠodbornÃ©": 7982,
  "Ġtlaku": 7983,
  "ĠzvÃ¡Å¾": 7984,
  "Ġzaregistr": 7985,
  "Ġcintor": 7986,
  "Ġfluor": 7987,
  "ĠpÃ´do": 7988,
  "zÃ¡pad": 7989,
  "Ġhlboko": 7990,
  "ĠpokraÄįuje": 7991,
  "Ġdeviat": 7992,
  "list": 7993,
  "esk": 7994,
  "Ġpravidiel": 7995,
  "ĠvyberaÅ¥": 7996,
  "ĠrieÅ¡enÃŃm": 7997,
  "sch": 7998,
  "Ġpla": 7999,
  "ĠrÃ½chlosti": 8000,
  "Ġanket": 8001,
  "ĠdemonÅ¡tr": 8002,
  "ĠpredstavujÃº": 8003,
  "Ġdrap": 8004,
  "ĠvÃ½klad": 8005,
  "Ġohrom": 8006,
  "ĠtopÃ¡nky": 8007,
  "Ġneobo": 8008,
  "ovejÅ¡ÃŃ": 8009,
  "ĠkÄ¾ud": 8010,
  "ĠstÃŃh": 8011,
  "Ġzlyh": 8012,
  "Ġnemecku": 8013,
  "Ġfilmov": 8014,
  "ĠformulÃ¡r": 8015,
  "ĠÄ¾udskÃ½ch": 8016,
  "Ġakadem": 8017,
  "ĠtrenÄįiansk": 8018,
  "ĠÄįias": 8019,
  "ance": 8020,
  "ialist": 8021,
  "ĠpozÃŃcie": 8022,
  "ĠzÃ¡zrak": 8023,
  "Ġ400": 8024,
  "ĠÅ¾up": 8025,
  "Ġidem": 8026,
  "Ġorav": 8027,
  "ĠpreÅ¡iel": 8028,
  "Ġaspekt": 8029,
  "ĠÅ¡ÃŃp": 8030,
  "ĠodsÃºd": 8031,
  "Ġrozhlas": 8032,
  "ĠstÃ¡Å¥": 8033,
  "ĠnevÃ½hod": 8034,
  "ĠsvÃ¤tÃ©ho": 8035,
  "mon": 8036,
  "ĠsnaÅ¾ÃŃme": 8037,
  "pÃ¤t": 8038,
  "ovejÅ¡ÃŃch": 8039,
  "ĠklÃ¡Å¡tor": 8040,
  "Ġpokojne": 8041,
  "ĠprÃ¡cou": 8042,
  "Ġstretli": 8043,
  "ĠuvedenÃ½": 8044,
  "ĠlÃ¡m": 8045,
  "Ġkapl": 8046,
  "ĠpoÄįk": 8047,
  "Ġzdvih": 8048,
  "Ġpremiet": 8049,
  "ĠÄįierna": 8050,
  "ĠtÃ¡r": 8051,
  "Ġizo": 8052,
  "ĠvypoÄįu": 8053,
  "Ġprud": 8054,
  "ĠsamotnÃ©": 8055,
  "ĠÃºvahy": 8056,
  "ĠkancelÃ¡rie": 8057,
  "ĠverÅ¡": 8058,
  "ovejÅ¡ia": 8059,
  "ĠÄ¾ubo": 8060,
  "Ġbund": 8061,
  "Ġsklon": 8062,
  "ovejÅ¡ÃŃm": 8063,
  "Ġobyvatelia": 8064,
  "ologickej": 8065,
  "ĠprevedenÃŃ": 8066,
  "ovejÅ¡iu": 8067,
  "ĠÄįierne": 8068,
  "Ġvkus": 8069,
  "Ġponor": 8070,
  "ickosti": 8071,
  "ĠfunkciÃŃ": 8072,
  "ĠvÃŃno": 8073,
  "ĠnasledujÃºcich": 8074,
  "ĠrelatÃŃvne": 8075,
  "Ġflo": 8076,
  "ĠotÃ¡zok": 8077,
  "ĠnÃ¡lez": 8078,
  "ĠÅ¡truktÃºr": 8079,
  "ovejÅ¡ou": 8080,
  "ovejÅ¡ÃŃmi": 8081,
  "Ġrober": 8082,
  "ovejÅ¡ej": 8083,
  "Ġpotrebu": 8084,
  "ovejÅ¡ieho": 8085,
  "eckÃ½": 8086,
  "ovejÅ¡iemu": 8087,
  "ovejÅ¡om": 8088,
  "ĠpÃº": 8089,
  "ÃºÅ¾": 8090,
  "ĠdoÄįk": 8091,
  "ĠdesaÅ¥roÄį": 8092,
  "ĠurÄįitÃ©": 8093,
  "Å¥ahuje": 8094,
  "ĠpoÅ¾iadaÅ¥": 8095,
  "ĠÄįloveku": 8096,
  "environment": 8097,
  "Ġpozdrav": 8098,
  "Ġdrez": 8099,
  "rh": 8100,
  ",.": 8101,
  "Ġrozpust": 8102,
  "ĠdatabÃ¡z": 8103,
  "Ġpich": 8104,
  "Ġinternetu": 8105,
  "Ġhodinky": 8106,
  "ĠvÃ¡pn": 8107,
  "prednost": 8108,
  "top": 8109,
  "ĠvÃ½konom": 8110,
  "kyne": 8111,
  "kÃ½v": 8112,
  "teri": 8113,
  "ĠvlastnÃ½m": 8114,
  "Ġsprost": 8115,
  "ĠnÃºdz": 8116,
  "Ġutorok": 8117,
  "Ġanalyt": 8118,
  "atÃ½": 8119,
  "Ġair": 8120,
  "Ġmetabol": 8121,
  "ĠÅ¡tÃºdie": 8122,
  "dispon": 8123,
  "ĠpoÄįuÅ¥": 8124,
  "Ġkrista": 8125,
  "ĠpriebeÅ¾": 8126,
  "ĠÄıalÅ¡ou": 8127,
  "Ġodraz": 8128,
  "ĠgymnÃ¡z": 8129,
  "Ġprip": 8130,
  "Ġmatky": 8131,
  "Ġsvedom": 8132,
  "ĠposlednÃº": 8133,
  "Ġpotrebujeme": 8134,
  "ĠnajvÃ¤ÄįÅ¡ÃŃch": 8135,
  "Ġvedenia": 8136,
  "ĠÃºÄįasti": 8137,
  "enta": 8138,
  "Ġurobili": 8139,
  "ĠduÅ¡e": 8140,
  "ĠÄįarodej": 8141,
  "ĠnegatÃŃvne": 8142,
  "ĠkaÅ¾doroÄįne": 8143,
  "ĠverejnÃ©": 8144,
  "Ġskupinu": 8145,
  "Ã¡vky": 8146,
  "ĠskÃºÅ¡ky": 8147,
  "ĠspaÄ¾": 8148,
  "Ġovocia": 8149,
  "Ġpuk": 8150,
  "inke": 8151,
  "ĠsÃºborov": 8152,
  "Ġbanka": 8153,
  "ĠÅ¡tÃ½lu": 8154,
  "iatr": 8155,
  "Ġmiestnych": 8156,
  "Ġnedb": 8157,
  "ĠvÃ½Å¾i": 8158,
  "Ġzistili": 8159,
  "Ġsd": 8160,
  "ĠprÃŃzem": 8161,
  "Ġbystrici": 8162,
  "Ġkatastrof": 8163,
  "Ġnastavenia": 8164,
  "ĠoprÃ¡vnenÃ½": 8165,
  "ĠÅ¡iroko": 8166,
  "Ã©ry": 8167,
  "Ġpozad": 8168,
  "ĠoslÃ¡v": 8169,
  "Ġprinc": 8170,
  "ĠpochopiÅ¥": 8171,
  "Ġdec": 8172,
  "nÃ¡st": 8173,
  "Ġsachar": 8174,
  "ĠvedÃºci": 8175,
  "ĠokrÃºh": 8176,
  "ĠÅ¡iest": 8177,
  "Ġbodu": 8178,
  "Ġostro": 8179,
  "Ġmlieka": 8180,
  "ĠdokÃ¡zal": 8181,
  "ĠkÃºsky": 8182,
  "Ġcu": 8183,
  "udr": 8184,
  "Ġnevyna": 8185,
  "Ġrastu": 8186,
  "Ġ2006": 8187,
  "ĠsvÃ¤to": 8188,
  "ĠÃºÅ¾asnÃ©": 8189,
  "ÃŃde": 8190,
  "avy": 8191,
  "Ġkomu": 8192,
  "ĠryÅ¾": 8193,
  "vÃ¤zuje": 8194,
  "Ġodrod": 8195,
  "anc": 8196,
  "Ġkont": 8197,
  "ĠextrÃ©mne": 8198,
  "Ġomiet": 8199,
  "ĠÅ¾reb": 8200,
  "Ġcelkovej": 8201,
  "Ġzh": 8202,
  "tmav": 8203,
  "ĠÅ¡tadiÃ³n": 8204,
  "tox": 8205,
  "Ġdesi": 8206,
  "ĠspokojnÃ½": 8207,
  "Ġzajtra": 8208,
  "ĠvytvÃ¡raÅ¥": 8209,
  "Ġtakzv": 8210,
  "Ġtextil": 8211,
  "Ġexped": 8212,
  "ĠzÃ¡hrady": 8213,
  "eÅĪa": 8214,
  "Ġcukru": 8215,
  "ĠnadÃ¡c": 8216,
  "Ġdosky": 8217,
  "ĠrovnovÃ¡h": 8218,
  "Ġustanovenia": 8219,
  "ĠprÃŃstav": 8220,
  "Ġhydrat": 8221,
  "ĠzÃºf": 8222,
  "ĠdohÄ¾ad": 8223,
  "bÃŃ": 8224,
  "ĠcisÃ¡r": 8225,
  "ĠspoÄįÃŃva": 8226,
  "ickosÅ¥ou": 8227,
  "ĠdaÅ¾Äı": 8228,
  "Ġblud": 8229,
  "Ġakom": 8230,
  "Ġobrad": 8231,
  "ĠposÃº": 8232,
  "Ġmena": 8233,
  "ĠsÃŃr": 8234,
  "ĠaustrÃ¡l": 8235,
  "ÅĪte": 8236,
  "Ġporot": 8237,
  "ĠzÃ¡loh": 8238,
  "ĠzaplatiÅ¥": 8239,
  "demokrat": 8240,
  "ĠlÃºk": 8241,
  "ĠpovedanÃ©": 8242,
  "ĠzÃ¡jazd": 8243,
  "Ġfunkcia": 8244,
  "ĠostatnÃ½mi": 8245,
  "kovania": 8246,
  "Ã©rie": 8247,
  "Ġrozloh": 8248,
  "ĠpÃ¡ch": 8249,
  "Ġpredmety": 8250,
  "Ġvianoce": 8251,
  "Ġuk": 8252,
  "ĠtÃ½kajÃºce": 8253,
  "ĠÅ¾ij": 8254,
  "fer": 8255,
  "ĠblÃ¡zn": 8256,
  "Ġobrat": 8257,
  "inovÃ©ho": 8258,
  "Ġnemohol": 8259,
  "Ġsklen": 8260,
  "transparent": 8261,
  "niem": 8262,
  "2015": 8263,
  "Ġfiltr": 8264,
  "ĠodÃ´vod": 8265,
  "Ġbunky": 8266,
  "ink": 8267,
  "rozprÃ¡v": 8268,
  "ĠcelkovÃ½": 8269,
  "oÄ¾": 8270,
  "ĠzÃºÄįastnili": 8271,
  "ĠrozÅ¡ir": 8272,
  "Ã³zy": 8273,
  "ĠzÅ¡": 8274,
  "ĠodolnosÅ¥": 8275,
  "ĠprÃŃjmov": 8276,
  "ĠpoÄı": 8277,
  "ovisku": 8278,
  "ĠregiÃ³ne": 8279,
  "ĠfungovaÅ¥": 8280,
  "Ġpomst": 8281,
  "ĠzbaviÅ¥": 8282,
  "ĠiniciatÃŃv": 8283,
  "Ġstravy": 8284,
  "nieÅ¡": 8285,
  "ĠtlaÄįiar": 8286,
  "niete": 8287,
  "nieme": 8288,
  "Ġort": 8289,
  "Ġ'": 8290,
  "kop": 8291,
  "tine": 8292,
  "tek": 8293,
  "Ġhotely": 8294,
  "ĠnosiÅ¥": 8295,
  "Ġkompakt": 8296,
  "ĠprofesionÃ¡lne": 8297,
  "iaÅ¡": 8298,
  "Ġrastie": 8299,
  "ĠpraÅ¡": 8300,
  "ĠÃºÄįinnosÅ¥": 8301,
  "ĠdoplnenÃŃ": 8302,
  "hone": 8303,
  "ĠfrÃ©z": 8304,
  "ÃºÄįt": 8305,
  "Ġskrut": 8306,
  "ĠparÃ¡d": 8307,
  "Ġkysl": 8308,
  "ll": 8309,
  "ĠÄįer": 8310,
  "ĠmÃ¡ria": 8311,
  "Ġkontext": 8312,
  "poschod": 8313,
  "Ġfe": 8314,
  "Ġdrv": 8315,
  "Ġstrateg": 8316,
  "nal": 8317,
  "ĠkuchyÅĪa": 8318,
  "ĠcieÄ¾a": 8319,
  "omoc": 8320,
  "Ġdrsn": 8321,
  "%.": 8322,
  "Ġusil": 8323,
  "kemu": 8324,
  "Ġq": 8325,
  "ikÃ¡": 8326,
  "Ġniekomu": 8327,
  "ĠpodloÅ¾": 8328,
  "ĠkonÄįÃŃ": 8329,
  "ght": 8330,
  "ickostÃŃ": 8331,
  "ickosÅ¥ami": 8332,
  "ickostiam": 8333,
  "ickostiach": 8334,
  "Ġvedela": 8335,
  "Ġkokos": 8336,
  "ĠÅ¡um": 8337,
  "ĠvÃ½nos": 8338,
  "Ġkrav": 8339,
  "ĠruÄįne": 8340,
  "ĠnajvyÅ¡Å¡ej": 8341,
  "lami": 8342,
  "ĠjemnÃ©": 8343,
  "Ġsal": 8344,
  "Ġvysokou": 8345,
  "ovho": 8346,
  "Ġtw": 8347,
  "ĠzodpovedÃ¡": 8348,
  "ĠtuÄį": 8349,
  "Ġstyk": 8350,
  "Ġprezrad": 8351,
  "Ġvchod": 8352,
  "Ġnet": 8353,
  "ĠhÄ¾adÃ¡": 8354,
  "Ġakcia": 8355,
  "Ġturisti": 8356,
  "Ġklop": 8357,
  "otov": 8358,
  "Ġdajte": 8359,
  "all": 8360,
  "Ġprotokol": 8361,
  "Ġizbu": 8362,
  "ĠobrovskÃ©": 8363,
  "ĠleÅ¾ÃŃ": 8364,
  "otr": 8365,
  "ÃŃvy": 8366,
  "Ġniet": 8367,
  "Ġneskon": 8368,
  "Ġzapad": 8369,
  "Ġpridel": 8370,
  "Ġnemocnice": 8371,
  "Ġgenet": 8372,
  "Ġhluch": 8373,
  "Ġgre": 8374,
  "Ġmag": 8375,
  "Ġparazit": 8376,
  "Ġnepochyb": 8377,
  "ĠstarÅ¡ÃŃ": 8378,
  "ĠpozÃŃciu": 8379,
  "Ġsiedm": 8380,
  "ery": 8381,
  "Ġmake": 8382,
  "ĠsprÃ¡ve": 8383,
  "ĠtÃŃto": 8384,
  "ĠzbytoÄįne": 8385,
  "Ġ32": 8386,
  "ĠautÃ¡": 8387,
  "enskÃ©ho": 8388,
  "ĠvÃ½prav": 8389,
  "Ġmudr": 8390,
  "Ġdetskej": 8391,
  "ĠpreÅ¾ÃŃv": 8392,
  "vÃ¡dza": 8393,
  "ĠobcÃŃ": 8394,
  "Ġdemokrac": 8395,
  "Ġlap": 8396,
  "Ġoslab": 8397,
  "Ġpreh": 8398,
  "ĠskÃº": 8399,
  "ateÄ¾nÃ½": 8400,
  "ovkÃ¡m": 8401,
  "ĠzdravotnÃŃctva": 8402,
  "ĠspÃ´sobilo": 8403,
  "Ġiskr": 8404,
  "Ġ33": 8405,
  "Ġsvin": 8406,
  "ĠzÃ¡hrade": 8407,
  "ĠdlhÃ½": 8408,
  "Ġporiadok": 8409,
  "Ġmoder": 8410,
  "ĠlieÄįby": 8411,
  "anoch": 8412,
  "Ġfer": 8413,
  "ĠskonÄįil": 8414,
  "dro": 8415,
  "ĠslÃºÅ¾iÅ¥": 8416,
  "ĠvÃ½boru": 8417,
  "ĠnÃ¡jd": 8418,
  "Ġom": 8419,
  "ĠvÃ½luÄįne": 8420,
  "Ġcla": 8421,
  "ĠzdravÃ½": 8422,
  "ĠÃºrovne": 8423,
  "ĠÄįiernej": 8424,
  "ĠobÄįerstv": 8425,
  "ĠosvieÅ¾": 8426,
  "Ġizbe": 8427,
  "Ġnadstav": 8428,
  "Ġskut": 8429,
  "Ġholand": 8430,
  "encoch": 8431,
  "ĠbÃ¡j": 8432,
  "Ġmilujem": 8433,
  "Ġfosfor": 8434,
  "Ġsmol": 8435,
  "ĠploÅ¡": 8436,
  "ave": 8437,
  "kor": 8438,
  "ĠpÃ´vodu": 8439,
  "funkÄį": 8440,
  "Ġznie": 8441,
  "niÄįke": 8442,
  "ĠnÃ¡zv": 8443,
  "Ġsila": 8444,
  "ĠodtiaÄ¾": 8445,
  "over": 8446,
  "ĠobsahovaÅ¥": 8447,
  "ĠpoÅ¾adovanÃ©": 8448,
  "Ġkvart": 8449,
  "ĠskonÄįenÃŃ": 8450,
  "ĠfasÃ¡d": 8451,
  "Ġkostola": 8452,
  "vraÅ¾d": 8453,
  "Ã¡tory": 8454,
  "ĠdodrÅ¾": 8455,
  "Ġdifer": 8456,
  "itÃ©ho": 8457,
  "Ã©ria": 8458,
  "Ġverziu": 8459,
  "ĠprieduÅ¡": 8460,
  "ĠÅ¡ie": 8461,
  "Ġtentoraz": 8462,
  "ĠhormÃ³n": 8463,
  "ĠdialÃ³g": 8464,
  "Ġvidela": 8465,
  "ĠdievÄįa": 8466,
  "Ġnevedia": 8467,
  "Ġnevyu": 8468,
  "ĠdodaÅ¥": 8469,
  "siatich": 8470,
  "Ġminc": 8471,
  "ĠpremÃ½Å¡Ä¾": 8472,
  "ĠmestÃ¡ch": 8473,
  "bur": 8474,
  "Ġplam": 8475,
  "Ġmlyn": 8476,
  "Ġnevad": 8477,
  "Ġgril": 8478,
  "Ġfyzickej": 8479,
  "Ġzmer": 8480,
  "iÄįom": 8481,
  "Ġsieti": 8482,
  "ĠstarÅ¡ÃŃch": 8483,
  "Ġvydanie": 8484,
  "red": 8485,
  "Ġdokop": 8486,
  "Ġreport": 8487,
  "Ġspravodaj": 8488,
  "avosÅ¥ou": 8489,
  "liad": 8490,
  "ĠÄįakajÃº": 8491,
  "ĠmalÃ©ho": 8492,
  "Ġjuho": 8493,
  "ĠvysvetÄ¾uje": 8494,
  "ĠinfraÅ¡trukt": 8495,
  "Ġpor": 8496,
  "ĠorgÃ¡ny": 8497,
  "Ġmajetok": 8498,
  "alizÃ¡cie": 8499,
  "ĠvytvÃ¡rajÃº": 8500,
  "ĠvÃ½stavy": 8501,
  "alizuje": 8502,
  "Ãºd": 8503,
  "Ã³ny": 8504,
  "Ġexot": 8505,
  "ĠpÃ¤Å¥desiat": 8506,
  "Ġslovakia": 8507,
  "ĠtakÃ½mto": 8508,
  "Ġkali": 8509,
  "ĠteÅ¡ÃŃ": 8510,
  "Ġpredmetov": 8511,
  "ĠÅ¡tyl": 8512,
  "Ġodpadu": 8513,
  "pit": 8514,
  "lt": 8515,
  "ĠsprÃ¡vnu": 8516,
  "Ġnerozum": 8517,
  "Ġakumul": 8518,
  "ĠdivÃ¡kov": 8519,
  "atÃŃvnej": 8520,
  "brali": 8521,
  "Ġnajnez": 8522,
  "chirurg": 8523,
  "ĠÄįÃŃtanie": 8524,
  "ĠdieÅ¥at": 8525,
  "Ġzoznamu": 8526,
  "Ġposkytne": 8527,
  "ĠoblastÃŃ": 8528,
  "ĠnaÅ¡imi": 8529,
  "Ġlokalite": 8530,
  "Ġzatvor": 8531,
  "Ġzmrz": 8532,
  "ĠvyhÃ½b": 8533,
  "Ġvyraz": 8534,
  "ĠuzatvÃ¡r": 8535,
  "Ġfondu": 8536,
  "ĠmodernÃ½": 8537,
  "ĠneznamenÃ¡": 8538,
  "pnut": 8539,
  "ĠchrÃ¡niÅ¥": 8540,
  "Ġenvironment": 8541,
  "Ġhrdl": 8542,
  "ĠinvestiÄį": 8543,
  "ĠvlÃ¡kn": 8544,
  "par": 8545,
  "Ã¼": 8546,
  "Ġskryt": 8547,
  "itnÃ½": 8548,
  "Ġsvalov": 8549,
  "Ġrock": 8550,
  "Ġpavol": 8551,
  "Ġfrajer": 8552,
  "Ġnit": 8553,
  "Ġozaj": 8554,
  "ĠÃºtul": 8555,
  "Ġzos": 8556,
  "Ġtransform": 8557,
  "Ġpras": 8558,
  "Ġpripomien": 8559,
  "Ġforma": 8560,
  "ĠvÃ½mer": 8561,
  "ĠvÃŃÅ¥azstvo": 8562,
  "ĠnajrÃ½chl": 8563,
  "ĠinformÃ¡ciu": 8564,
  "ĠdovoÄ¾": 8565,
  "inkÃ¡r": 8566,
  "Ġchirurg": 8567,
  "Ġmatur": 8568,
  "Ġpodnikania": 8569,
  "Ġslnka": 8570,
  "ĠobjednÃ¡vateÄ¾": 8571,
  "Ġklientom": 8572,
  "Ġpriebeh": 8573,
  "ĠÃºder": 8574,
  "ĠbruÅ¡": 8575,
  "Ġtvare": 8576,
  "nacionalist": 8577,
  "anosÅ¥": 8578,
  "Ġruch": 8579,
  "trpÄį": 8580,
  "ĠmÃºk": 8581,
  "Ġkroky": 8582,
  "slov": 8583,
  "Ã¡lom": 8584,
  "ĠvÃ½sad": 8585,
  "Ġvla": 8586,
  "Ġmuzik": 8587,
  "Ġzamestnanci": 8588,
  "ĠvytlaÄį": 8589,
  "Ġnitre": 8590,
  "70": 8591,
  "Ġdozviete": 8592,
  "olez": 8593,
  "Ġpostavenie": 8594,
  "Ġbezprostred": 8595,
  "ĠnevÃ¡hajte": 8596,
  "Ġpomohli": 8597,
  "Ġpohodlie": 8598,
  "ĠprÃŃtomnosÅ¥": 8599,
  "Ġnevin": 8600,
  "ĠpriniesÅ¥": 8601,
  "Ġdomy": 8602,
  "ĠÅ¡ial": 8603,
  "ĠschopnÃŃ": 8604,
  "ĠangliÄįt": 8605,
  "ĠmalÃº": 8606,
  "ĠplastovÃ©": 8607,
  "ĠrukÃ¡v": 8608,
  "Ġintelekt": 8609,
  "Ġposlanci": 8610,
  "ĠpÃ´sobia": 8611,
  "ĠuÄįiteÄ¾ov": 8612,
  "ĠnevoÄ¾": 8613,
  "otÃ©k": 8614,
  "Ġmalin": 8615,
  "ĠzaloÅ¾enÃ¡": 8616,
  "Ġpredaji": 8617,
  "ĠporuÄį": 8618,
  "Ġrozman": 8619,
  "ĠnaÅ¡ÃŃm": 8620,
  "ĠvajÃŃÄį": 8621,
  "sia": 8622,
  "ĠtieÅĪ": 8623,
  "Ġpozri": 8624,
  "Ġadresa": 8625,
  "Ġpartiz": 8626,
  "Ġcz": 8627,
  "ĠpodporiÅ¥": 8628,
  "funk": 8629,
  "ĠprÃ¡vnych": 8630,
  "Ã¡tormi": 8631,
  "ĠneÅ¡Å¥ast": 8632,
  "Ġwell": 8633,
  "Ġinternetovej": 8634,
  "Ġtvoje": 8635,
  "Ġkober": 8636,
  "ĠÃ¡ut": 8637,
  "Ġmodelov": 8638,
  "Ġstrede": 8639,
  "ĠplÃ¡nu": 8640,
  "Ġdoprava": 8641,
  "Ġuviedla": 8642,
  "Ġreklamy": 8643,
  "ĠmyslieÅ¥": 8644,
  "Ġporozum": 8645,
  "Ġmartina": 8646,
  "ĠiÅ¡li": 8647,
  "ĠÄįlÃ¡nkov": 8648,
  "ĠinteriÃ©ru": 8649,
  "Ġdb": 8650,
  "gen": 8651,
  "ĠtÃ©ma": 8652,
  "ĠmanaÅ¾ment": 8653,
  "star": 8654,
  "Äįa": 8655,
  "ĠvÃ½Å¥ah": 8656,
  "plement": 8657,
  "Ġsna": 8658,
  "Ġvymysl": 8659,
  "Ġveterin": 8660,
  "Ġignor": 8661,
  "ĠnajnovÅ¡ie": 8662,
  "ĠregiÃ³nu": 8663,
  "ĠzmÃ¤t": 8664,
  "Ġplnej": 8665,
  "ĠvynÃ¡lez": 8666,
  "Ġmora": 8667,
  "chu": 8668,
  "ĠÅ¡ampÃ³n": 8669,
  "ĠzabraÅĪ": 8670,
  "ĠnÃ¡dhernÃ©": 8671,
  "Ġbuj": 8672,
  "Ġprispe": 8673,
  "Ġceng": 8674,
  "ĠjedineÄįnÃ½": 8675,
  "ĠakejkoÄ¾vek": 8676,
  "Ġcol": 8677,
  "ĠzahraniÄįia": 8678,
  "ĠÄįiastoÄį": 8679,
  "ĠkaÅ¡": 8680,
  "Ġvice": 8681,
  "ĠkÅķÄį": 8682,
  "ĠnaplÃ¡n": 8683,
  "ĠsÃ½t": 8684,
  "Ġturistov": 8685,
  "ĠÅ¾ivotom": 8686,
  "Ġtoler": 8687,
  "Ġmiroslav": 8688,
  "iareÅĪ": 8689,
  "ĠnehnuteÄ¾nostÃŃ": 8690,
  "ĠsmÃºt": 8691,
  "ĠpoÅ¾ehn": 8692,
  "Ġvit": 8693,
  "ĠnejakÃ¡": 8694,
  "Ã¡lnejÅ¡ie": 8695,
  "ĠÅ¾enu": 8696,
  "Ġposlancov": 8697,
  "ulo": 8698,
  "ĠkrÃ¡tke": 8699,
  "ĠmÃŃn": 8700,
  "eÅ¾e": 8701,
  "ĠpolÄįas": 8702,
  "ĠnÃ¡vÅ¡tevnÃŃci": 8703,
  "Ġpartnerov": 8704,
  "iÄįe": 8705,
  "Ġvymedz": 8706,
  "Ġodd": 8707,
  "Ġgolf": 8708,
  "ĠvÃ½uÄį": 8709,
  "ĠmÃºr": 8710,
  "Ġmichael": 8711,
  "rozmer": 8712,
  "ĠspÃ¡nku": 8713,
  "ĠpreÄį": 8714,
  "inovÃº": 8715,
  "Ġkontrast": 8716,
  "Ġoliv": 8717,
  "Ġyor": 8718,
  "ĠreÅ¾isÃ©r": 8719,
  "Ġnesmierne": 8720,
  "ĠstupÅĪov": 8721,
  "ĠpouÅ¾itÃŃ": 8722,
  "ĠroÅ¾": 8723,
  "ĠkonÅ¡trukcia": 8724,
  "ĠzaujÃŃma": 8725,
  "ĠÅ¡Ã¡l": 8726,
  "ĠvoÄ¾bou": 8727,
  "ĠÅ¡tÃ¡di": 8728,
  "ĠodbornÃ½ch": 8729,
  "Ġzmoc": 8730,
  "ĠzvoliÅ¥": 8731,
  "niar": 8732,
  "Ġtlm": 8733,
  "ĠzabezpeÄįÃŃ": 8734,
  "Ġtien": 8735,
  "Ġochorenie": 8736,
  "Ġmozgu": 8737,
  "ĠjedlÃ¡": 8738,
  "Ġbradav": 8739,
  "Ġarche": 8740,
  "Ġpripad": 8741,
  "Ġvzdialenosti": 8742,
  "Ġveter": 8743,
  "28": 8744,
  "Ġpodzem": 8745,
  "kompatibil": 8746,
  "ĠkoreÅĪ": 8747,
  "Ġhornej": 8748,
  "ĠfantÃ¡z": 8749,
  "ĠzbraÅĪ": 8750,
  "Ãºz": 8751,
  "Ġnemusia": 8752,
  "ĠvoÄ¾ne": 8753,
  "Ġvajc": 8754,
  "ĠokolnostÃŃ": 8755,
  "Ġdareb": 8756,
  "otechn": 8757,
  "Ġnovinky": 8758,
  "ĠexpozÃŃ": 8759,
  "ĠzÃ¡pasy": 8760,
  "ĠosobnÃ½": 8761,
  "ĠtakÃºto": 8762,
  "ĠpredÄįas": 8763,
  "Ġnezabudnite": 8764,
  "Ġplnenie": 8765,
  "Ġpokrok": 8766,
  "Ġmorav": 8767,
  "Ġneobmedz": 8768,
  "ĠzaujÃŃmavÃ½ch": 8769,
  "ĠinÅ¾inier": 8770,
  "Ġtransparent": 8771,
  "ĠvrÃ¡til": 8772,
  "Äįist": 8773,
  "ĠvyÄįist": 8774,
  "Ġlem": 8775,
  "izÃ¡ciou": 8776,
  "ĠprechÃ¡dza": 8777,
  "Ġant": 8778,
  "omet": 8779,
  "Ġelektronickej": 8780,
  "ĠpÃ´sobiÅ¥": 8781,
  "Ġocele": 8782,
  "ĠnajbliÅ¾Å¡ie": 8783,
  "ĠosobitnÃ©ho": 8784,
  "Ġstredovek": 8785,
  "udz": 8786,
  "Ġmgr": 8787,
  "ĠÄıalÅ¡om": 8788,
  "Ġrias": 8789,
  "Ġerot": 8790,
  "Ġriadenia": 8791,
  "venÄį": 8792,
  "ĠrÃŃÅ¡": 8793,
  "Ġtvrdo": 8794,
  "Ġdomn": 8795,
  "kaz": 8796,
  "Ġspas": 8797,
  "Ġ120": 8798,
  "ĠnÃ¡jdu": 8799,
  "Ġmzdy": 8800,
  "Ġras": 8801,
  "Ġzr": 8802,
  "Ġnespolu": 8803,
  "Ġskrom": 8804,
  "ĠpracujÃº": 8805,
  "ĠcigÃ¡n": 8806,
  "nÃ¡Å¡aÅ¥": 8807,
  "2014": 8808,
  "ĠpochÃ¡dz": 8809,
  "Ġvytiah": 8810,
  "ĠlÃºp": 8811,
  "ĠÄįerven": 8812,
  "Ġmestom": 8813,
  "Ġhradu": 8814,
  "ĠzriaÄı": 8815,
  "ryt": 8816,
  "Ġpodniku": 8817,
  "Ġzohr": 8818,
  "ĠvrÃ¡ti": 8819,
  "soft": 8820,
  "fit": 8821,
  "Ġzozname": 8822,
  "Ġpec": 8823,
  "Ġblb": 8824,
  "Ġdopyt": 8825,
  "Ġbahn": 8826,
  "ĠpozeraÅ¥": 8827,
  "Äįka": 8828,
  "ĠdomÃ©n": 8829,
  "atÃŃva": 8830,
  "ĠlieÄįeb": 8831,
  "Ġnikoho": 8832,
  "Ġplocha": 8833,
  "Ġhazard": 8834,
  "ĠpokÃºÅ¡": 8835,
  "ieÅ¡Å¥": 8836,
  "ety": 8837,
  "Ġzodpovednosti": 8838,
  "ĠdanÃ½": 8839,
  "Ġlaser": 8840,
  "Ġdokumenty": 8841,
  "ĠfrÃ¡z": 8842,
  "Ġelimin": 8843,
  "Ġvybavenia": 8844,
  "Ġvted": 8845,
  "ĠobchodnÃ©ho": 8846,
  "Ġrytm": 8847,
  "olu": 8848,
  "ĠupraviÅ¥": 8849,
  "ĠrÃ½chly": 8850,
  "Ġgazd": 8851,
  "Ġfili": 8852,
  "onos": 8853,
  "ofÃ³n": 8854,
  "ĠuliÄį": 8855,
  "ĠÄįiap": 8856,
  "Ġpoistenia": 8857,
  "Ġdeleg": 8858,
  "ĠvladimÃŃr": 8859,
  "Ġbed": 8860,
  "Ġdetekt": 8861,
  "pp": 8862,
  "chy": 8863,
  "ĠuviesÅ¥": 8864,
  "Ġstovky": 8865,
  "Ġnecel": 8866,
  "nulo": 8867,
  "eniek": 8868,
  "Ġcesnak": 8869,
  "ĠsezÃ³nu": 8870,
  "Ġsz": 8871,
  "ĠkupujÃºcim": 8872,
  "ĠvysokoÅ¡kol": 8873,
  "Ġmapy": 8874,
  "mocion": 8875,
  "ĠstavebnÃ©": 8876,
  ".).": 8877,
  "Ġakciu": 8878,
  "ĠsnaÅ¾iÅ¥": 8879,
  "ĠzvyÅ¡ok": 8880,
  "ĠhlinÃŃkov": 8881,
  "ĠzhorÅ¡": 8882,
  "ectv": 8883,
  "bin": 8884,
  "Ġ250": 8885,
  "Ġpokor": 8886,
  "ĠkÃºpe": 8887,
  "ĠdrÅ¾aÅ¥": 8888,
  "Ġsoviet": 8889,
  "ĠÄįeskoslovensk": 8890,
  "ĠotvorenÃ©": 8891,
  "Ġsepar": 8892,
  "lÃŃ": 8893,
  "ĠadaptÃ©ra": 8894,
  "ban": 8895,
  "Ġvyhod": 8896,
  "Ġtet": 8897,
  "ĠoriginÃ¡lne": 8898,
  "ĠznaÄįiek": 8899,
  "Ġkrokom": 8900,
  "Ġesenc": 8901,
  "Ġpartnera": 8902,
  "Ġkoryt": 8903,
  "ĠÄįln": 8904,
  "Ġzasiah": 8905,
  "ĠÄįÄ¾ap": 8906,
  "Ġmokr": 8907,
  "iteÄ¾nÃº": 8908,
  "ĠkrÃ¡tky": 8909,
  "ianskej": 8910,
  "Ġrys": 8911,
  "ĠÅ¡portovÃ½ch": 8912,
  "ĠakÃ½chkoÄ¾vek": 8913,
  "Ġdizajnu": 8914,
  ",-": 8915,
  "vlhÄį": 8916,
  "ĠnajvyÅ¡Å¡ÃŃ": 8917,
  "ĠhlavnÃ¡": 8918,
  "motor": 8919,
  "Ġusb": 8920,
  "ult": 8921,
  "Ġnasta": 8922,
  "Ã¡rstvo": 8923,
  "ienka": 8924,
  "ostiv": 8925,
  "45": 8926,
  "Ġpreprac": 8927,
  "trans": 8928,
  "Ġrozpozn": 8929,
  "Ġpohodlne": 8930,
  "ĠuÅ¾ÃŃvateÄ¾ov": 8931,
  "ĠuplatniÅ¥": 8932,
  "Ġpartnerom": 8933,
  "ĠstarÃ©ho": 8934,
  "ĠnakÃºp": 8935,
  "Ġjuni": 8936,
  "Ġdesiatky": 8937,
  "Ġspravidla": 8938,
  "ĠdobrÃ½m": 8939,
  "ĠvyÅ¡Å¡ÃŃ": 8940,
  "Ġzmiz": 8941,
  "Ġneleg": 8942,
  "Ġvis": 8943,
  "Ġvyzdvih": 8944,
  "ĠmÅķtv": 8945,
  "covit": 8946,
  "?\"": 8947,
  "kultÃºr": 8948,
  "Ġreflex": 8949,
  "ĠÅ¡tÃºdiu": 8950,
  "ĠvzdelÃ¡vac": 8951,
  "Ġcer": 8952,
  "ĠpoznÃ¡": 8953,
  "ĠÃºÅ¾it": 8954,
  "Ġkorp": 8955,
  "Ġstarej": 8956,
  "ĠnÃ¡ram": 8957,
  "Ġindik": 8958,
  "Ġdopravu": 8959,
  "ĠpoÅ¥ah": 8960,
  "Ġfilmy": 8961,
  "Ġdisponuje": 8962,
  "ĠkopÃŃr": 8963,
  "Ġono": 8964,
  "ĠnÃ¡prav": 8965,
  "Ġspektr": 8966,
  "ĠÅ¡alÃ¡t": 8967,
  "Ġrep": 8968,
  "ĠdrevenÃ©": 8969,
  "Ġprev": 8970,
  "ĠÃºloÅ¾": 8971,
  "Ġpotrub": 8972,
  "ĠbÃ¡ze": 8973,
  "Ġfrak": 8974,
  "Ġtuku": 8975,
  "ĠÅ¡por": 8976,
  "27": 8977,
  "ĠsÃºvisiace": 8978,
  "Ġuprostred": 8979,
  "ĠuzÃ¡": 8980,
  "ĠposchodÃŃ": 8981,
  "ĠdoruÄįenia": 8982,
  "Ġspomedzi": 8983,
  "Ġtextu": 8984,
  "ĠurÄįiÅ¥": 8985,
  "ĠumiestnenÃ©": 8986,
  "Ġmyst": 8987,
  "Ġrub": 8988,
  "Ġhit": 8989,
  "konal": 8990,
  "ĠzlepÅ¡uje": 8991,
  "nieÅ¥": 8992,
  "Ġzhotov": 8993,
  "Ġnavig": 8994,
  "Ġidentifik": 8995,
  "ĠprÃºt": 8996,
  "ĠminÃºty": 8997,
  "ĠdÃ¡vn": 8998,
  "ĠkultÃºrne": 8999,
  "Ġnapodob": 9000,
  "ĠvÃ½stava": 9001,
  "Ġhuman": 9002,
  "Ã¡Äįov": 9003,
  "ĠspÃ¡l": 9004,
  "ĠkmeÅĪ": 9005,
  "ĠseriÃ¡l": 9006,
  "Ġhovoril": 9007,
  "ĠoÄįakÃ¡vania": 9008,
  "Ġart": 9009,
  "ĠzakÃºpiÅ¥": 9010,
  "erov": 9011,
  "Ġnedotk": 9012,
  "2013": 9013,
  "ĠkonÃ¡": 9014,
  "ĠÃºtvar": 9015,
  "ĠÃºprava": 9016,
  "Ġbenz": 9017,
  "ĠzaÄįnÃº": 9018,
  "ĠprÃŃstupu": 9019,
  "Ġment": 9020,
  "ĠsnaÅ¾ÃŃm": 9021,
  "Ġpolohy": 9022,
  "ĠnajvÃ½znam": 9023,
  "Ġmedit": 9024,
  "Ġkra": 9025,
  "ĠtechnickÃ½ch": 9026,
  "ĠmÃ©diÃŃ": 9027,
  "ĠzobraziÅ¥": 9028,
  "aktiv": 9029,
  "ĠodbornÃŃci": 9030,
  "atickÃ©": 9031,
  "ang": 9032,
  "Ġlat": 9033,
  "ĠhÃ¡j": 9034,
  "ĠnÃ¡mestÃŃ": 9035,
  "Ġbezkon": 9036,
  "Ġnitra": 9037,
  "Ġdetaily": 9038,
  "Ġznepokoj": 9039,
  "ĠÃºÄį": 9040,
  "Ġobil": 9041,
  "ĠÄįr": 9042,
  "Ġzanedb": 9043,
  "Ġpovedz": 9044,
  "ĠfinanÄįnej": 9045,
  "ĠtakÃ¡to": 9046,
  "oth": 9047,
  "iteÄ¾nÃ½m": 9048,
  "stup": 9049,
  "ĠakÃ½koÄ¾vek": 9050,
  "sedl": 9051,
  "ĠmnoÅ¾stve": 9052,
  "ÃŃÄįku": 9053,
  "ĠprenÃ¡jm": 9054,
  "Ġliekov": 9055,
  "ĠraÅĪajky": 9056,
  "ĠnepoÄįu": 9057,
  "26": 9058,
  "hol": 9059,
  "ĠbrÃ¡ny": 9060,
  "ĠzvÃŃÅ¥az": 9061,
  "Ġneraz": 9062,
  "Ġvypad": 9063,
  "ĠvybavenÃ½": 9064,
  "ĠznaÄįku": 9065,
  "ĠÄįistÃ©": 9066,
  "Ġru": 9067,
  "ĠoznÃ¡menie": 9068,
  "Ġdokumentov": 9069,
  "atÃŃvna": 9070,
  "pÃºÅ¡Å¥a": 9071,
  "inovÃ½m": 9072,
  "Ġjog": 9073,
  "Ġsrb": 9074,
  "ĠjedinÃ½m": 9075,
  "ĠpredoÅ¡": 9076,
  "ĠÅ¡tÃ¡tneho": 9077,
  "ĠÅ¡te": 9078,
  "ĠÅ¡k": 9079,
  "Ġhorizont": 9080,
  "ĠÄįest": 9081,
  "ĠpodobnÃ½": 9082,
  "Ġnezodpoved": 9083,
  "nÃ¡Å¡": 9084,
  "ĠprichÃ¡dzajÃº": 9085,
  "Ġnajnedo": 9086,
  "Ġzvod": 9087,
  "ĠpedagÃ³g": 9088,
  "pu": 9089,
  "Ã³ne": 9090,
  "Ġskok": 9091,
  "ĠobrovskÃ½": 9092,
  "ĠsprÃ¡vnej": 9093,
  "ĠvyÅ¾": 9094,
  "Ġlom": 9095,
  "ĠprÃŃznaky": 9096,
  "Ġkrajinu": 9097,
  "Ġneus": 9098,
  "ĠnesÃºhlas": 9099,
  "ĠÄįuÄįoried": 9100,
  "Ġhrom": 9101,
  "ĠsfÃ©r": 9102,
  "2016": 9103,
  "ĠnÃ¡vyk": 9104,
  "Ġspracovania": 9105,
  "ĠvyÅ¡Å¡ia": 9106,
  "Ġplacht": 9107,
  "Ãºcej": 9108,
  "ĠÅ¡kvrn": 9109,
  "Ġbrav": 9110,
  "aÄįmi": 9111,
  "iÃ³z": 9112,
  "Ġveciach": 9113,
  "Ã¡Äįik": 9114,
  "ĠstrednÃ½ch": 9115,
  "Ġochutn": 9116,
  "Ġtend": 9117,
  "iavame": 9118,
  "Ġautom": 9119,
  "ĠÅ¾ilina": 9120,
  "ĠzÃ¡kaznÃŃci": 9121,
  "ĠdostanÃº": 9122,
  "Ġtrocha": 9123,
  "ĠkvalitnÃ©ho": 9124,
  "ĠprÃŃroda": 9125,
  "Ġhn": 9126,
  "Ġnedovol": 9127,
  "Ġpoob": 9128,
  "ĠmaliÄį": 9129,
  "ĠbraÅ¥": 9130,
  "ĠobÃ½vaÄį": 9131,
  "ĠfuÅ¡": 9132,
  "Ġdes": 9133,
  "ĠÃºspechu": 9134,
  "Ġumy": 9135,
  "Ġvedomosti": 9136,
  "Ġfacebooku": 9137,
  "Ġpohor": 9138,
  "ĠostÃ¡va": 9139,
  "ĠveliteÄ¾": 9140,
  "iavajÃº": 9141,
  "ĠoplatÃŃ": 9142,
  "ĠpokroÄįil": 9143,
  "enciou": 9144,
  "eckej": 9145,
  "ĠzÃ¡kladnÃ¡": 9146,
  "iÅ¡li": 9147,
  "ĠpÃ´sobil": 9148,
  "Ġbrad": 9149,
  "ĠpovinnostÃŃ": 9150,
  "ĠjednoduchÅ¡ie": 9151,
  "ĠspÃ´sobenÃ©": 9152,
  "Ġbezo": 9153,
  "Ġzomrel": 9154,
  "snÃŃv": 9155,
  "Ġchuti": 9156,
  "Ġuznes": 9157,
  "Ġprievid": 9158,
  "Ġzorganiz": 9159,
  "Ġpevne": 9160,
  "Ġplan": 9161,
  "Ġtakejto": 9162,
  "Ġobvykle": 9163,
  "ĠkoÅ¾u": 9164,
  "Ã½v": 9165,
  "Ġ1000": 9166,
  "ĠnajdÃ´leÅ¾itejÅ¡ie": 9167,
  "aschop": 9168,
  "tur": 9169,
  "iÃ©ri": 9170,
  "Ġobjavili": 9171,
  "Ġaero": 9172,
  "ano": 9173,
  "Ġambul": 9174,
  "Ġsplat": 9175,
  "Ġpalub": 9176,
  "ĠvyhlÃ¡Å¡": 9177,
  "Å¡tal": 9178,
  "ĠvyrÃ¡ba": 9179,
  "cich": 9180,
  "ĠspotrebiteÄ¾a": 9181,
  "ĠstretnÃºÅ¥": 9182,
  "ĠzohÄ¾ad": 9183,
  "ĠdrÅ¾ÃŃ": 9184,
  "ĠakÃ©hokoÄ¾vek": 9185,
  "ĠpoznÃ¡me": 9186,
  "ĠÃºÄįastnÃŃci": 9187,
  "Ã³m": 9188,
  "ĠfÄ¾ak": 9189,
  "Ġzanik": 9190,
  "ĠprospeÅ¡": 9191,
  "ĠprispÃ´sobiÅ¥": 9192,
  "Ġann": 9193,
  "Ġkyseliny": 9194,
  "Ġpriezv": 9195,
  "ĠkÃ³p": 9196,
  "Ġakosi": 9197,
  "Ġtunel": 9198,
  "ĠmedzinÃ¡rodnÃ½ch": 9199,
  "Ġviery": 9200,
  "Ġexter": 9201,
  "ĠhÃ¡Äį": 9202,
  "nejÃº": 9203,
  "Ġdeform": 9204,
  "Ġhodnote": 9205,
  "ianskeho": 9206,
  "ĠpoisÅ¥ovne": 9207,
  "ĠvÃ´Ä¾": 9208,
  "ĠtechnolÃ³gia": 9209,
  "Ġverzie": 9210,
  "Ġmak": 9211,
  "Ġrukav": 9212,
  "ĠÃºdajne": 9213,
  "byrokrat": 9214,
  "Ġpriatelia": 9215,
  "ĠmenÅ¡ÃŃ": 9216,
  "ĠrelÃ¡c": 9217,
  "ĠvonkajÅ¡ie": 9218,
  "sledy": 9219,
  "ĠprameÅĪ": 9220,
  "Ġnosenie": 9221,
  "Ġarom": 9222,
  "opo": 9223,
  "ĠfigÃºr": 9224,
  "pÄºÅĪaÅ¥": 9225,
  "ĠbezpeÄįnÃ©": 9226,
  "ĠstÃ¡v": 9227,
  "ĠvyÅ¡Å¡iu": 9228,
  "Ġdivok": 9229,
  "Ġkuchyni": 9230,
  "ĠnuÅ¾": 9231,
  "Ġdominik": 9232,
  "hodl": 9233,
  "ĠkaÅ¾dÃ½m": 9234,
  "ĠnajprÃŃ": 9235,
  "ĠpresnÃ©": 9236,
  "Ġzapo": 9237,
  "ĠrodinnÃ½ch": 9238,
  "ĠnepÃ¡Äį": 9239,
  "Ġros": 9240,
  "ĠzmenÃŃ": 9241,
  "ds": 9242,
  "Ġvlaj": 9243,
  "ĠpoznÃ¡te": 9244,
  "ĠÅ¡irokÃ½": 9245,
  "igh": 9246,
  "Ġsemen": 9247,
  "ĠÅ¡nÃºr": 9248,
  "Ġslam": 9249,
  "ĠspÃ´soby": 9250,
  "Ġpreber": 9251,
  "ĠvoÄ¾bÃ¡ch": 9252,
  "ĠvÃ¡pen": 9253,
  "Ġ2004": 9254,
  "ĠoznaÄįenÃŃm": 9255,
  "Ã¡toch": 9256,
  "ĠmedzinÃ¡rodnÃ©ho": 9257,
  "ĠÅ¡uch": 9258,
  "Ġparametrov": 9259,
  "kin": 9260,
  "ĠkÃ¡vy": 9261,
  "Ġpredsedu": 9262,
  "ĠdopÄºÅĪa": 9263,
  "Ġpreteky": 9264,
  "Ġdovolenky": 9265,
  "ovnÃŃka": 9266,
  "ĠslovÃ¡ci": 9267,
  "Ġantioxid": 9268,
  "ĠbeÅ¾nÃ½ch": 9269,
  "ĠvozidlÃ¡": 9270,
  "ĠpostavenÃ½": 9271,
  "ĠplnÃ¡": 9272,
  "Ġzate": 9273,
  "Ġsedm": 9274,
  "ĠdÅ¾bÃ¡n": 9275,
  "min": 9276,
  "Ġnaposledy": 9277,
  "ĠvoÄ¾ba": 9278,
  "Ġfilme": 9279,
  "ĠdÃ´vody": 9280,
  "ĠÅ¾Ä¾az": 9281,
  "Ġmarek": 9282,
  "Ġdav": 9283,
  "ĠostatnÃ½m": 9284,
  "one": 9285,
  "Ġmach": 9286,
  "ĠzdrÅ¾": 9287,
  "Ġdeklar": 9288,
  "Ġreality": 9289,
  "olÃ³giu": 9290,
  "ĠprevÃ¡dzku": 9291,
  "ĠpreÄįÃŃtajte": 9292,
  "ĠsamozrejmosÅ¥ou": 9293,
  "Ġnariadenia": 9294,
  "Ġsatan": 9295,
  "niÄįiek": 9296,
  ".-": 9297,
  "ĠrÃ¡z": 9298,
  "ĠstupÅĪa": 9299,
  "ĠzameranÃ©": 9300,
  "ĠreÅ¡taurÃ¡cie": 9301,
  "ĠvieÅ¡": 9302,
  "ĠpostaÄį": 9303,
  "Ġtrendy": 9304,
  "Ġbit": 9305,
  "ĠvyhnÃºÅ¥": 9306,
  "ĠpredÃ¡vajÃºcemu": 9307,
  "niesol": 9308,
  "Ġnapoj": 9309,
  "Ġnarodil": 9310,
  "ĠtÃ©me": 9311,
  "Ġnevedel": 9312,
  "mul": 9313,
  "ĠorganizÃ¡ciÃŃ": 9314,
  "Ġreakcie": 9315,
  "ĠskrÃ¡tka": 9316,
  "Ġkusov": 9317,
  "ĠvybavenÃ¡": 9318,
  "Ġticho": 9319,
  "Ġkatech": 9320,
  "ĠstupeÅĪ": 9321,
  "bÃ¡m": 9322,
  "ĠpÃ´Å¾iÄįky": 9323,
  "Ġkraji": 9324,
  "ÄįÃŃme": 9325,
  "Ġzbrane": 9326,
  "Ġpovzbud": 9327,
  "ĠvÃ½stavby": 9328,
  "Ġworks": 9329,
  "iakov": 9330,
  "Ġ2005": 9331,
  "ĠÃºpravu": 9332,
  "Ġcifr": 9333,
  "enskÃ©": 9334,
  "pustiÅ¥": 9335,
  "ĠzÃ¡krok": 9336,
  "ĠnedostatoÄį": 9337,
  "Ġprahe": 9338,
  "avostÃŃ": 9339,
  "ĠÄįastiach": 9340,
  "ÄįÃŃte": 9341,
  "ĠpevnÃ©": 9342,
  "Ġmiliard": 9343,
  "ĠotvoriÅ¥": 9344,
  "nejÃºc": 9345,
  "Ġhum": 9346,
  "Ġzob": 9347,
  "ÄįÃŃÅ¡": 9348,
  "oman": 9349,
  "tvor": 9350,
  "avostiach": 9351,
  "ĠsnaÅ¾il": 9352,
  "avostiam": 9353,
  "avosÅ¥ami": 9354,
  "ĠorgÃ¡nu": 9355,
  "liteÄ¾": 9356,
  "ĠcÃŃtim": 9357,
  "izÃ¡ciÃŃ": 9358,
  "Ġnejakej": 9359,
  "putn": 9360,
  "Ġpalet": 9361,
  "Ġdosiahnutie": 9362,
  "ĠmestskÃ©ho": 9363,
  "Ġpilot": 9364,
  "Ġprocese": 9365,
  "ĠvÃ´ÅĪu": 9366,
  "ĠpoznaÅ¥": 9367,
  "ĠskÃ³r": 9368,
  "ĠfaÅ¡": 9369,
  "Ġnajp": 9370,
  "Ġahoj": 9371,
  "Ġklep": 9372,
  "ĠÄįÃŃr": 9373,
  "ĠpreskÃºm": 9374,
  "ĠspisovateÄ¾": 9375,
  "Ã¡Äįky": 9376,
  "ĠzneÄįist": 9377,
  "Ġraket": 9378,
  "niÄįkou": 9379,
  "ĠvidÃŃ": 9380,
  "ĠcelkovÃ¡": 9381,
  "Ġdospe": 9382,
  "Ġdoplnkov": 9383,
  "ĠzaruÄįuje": 9384,
  "ĠeurÃ³pska": 9385,
  "aÄįoch": 9386,
  "ĠnÃ³r": 9387,
  "Ġomyl": 9388,
  "Ġobrany": 9389,
  "Ġremesel": 9390,
  "Ġfund": 9391,
  "ĠvÃ½menu": 9392,
  "ash": 9393,
  "Ġpovraz": 9394,
  "Ġbystrica": 9395,
  "Ġpit": 9396,
  "lar": 9397,
  "tiah": 9398,
  "Ġprovok": 9399,
  "ĠpotrebnÃ½": 9400,
  "sion": 9401,
  "Ġpochod": 9402,
  "reag": 9403,
  "Ã©t": 9404,
  "ĠintenzÃŃvne": 9405,
  "ĠzruÄįnosti": 9406,
  "Ġsumy": 9407,
  "ĠÅ¡irokÃº": 9408,
  "ĠmenÃ¡": 9409,
  "ĠkonÅ¡trukcie": 9410,
  "Ġnesie": 9411,
  "Ġcic": 9412,
  "ĠfarebnÃ½ch": 9413,
  "ĠskvelÃ¡": 9414,
  "ĠnÃŃzke": 9415,
  "ĠsÃºvisÃŃ": 9416,
  "Ġceruz": 9417,
  "ĠpodrÃ¡Å¾d": 9418,
  "Ġzdol": 9419,
  "ĠdÃ´jde": 9420,
  "Ġiii": 9421,
  "Ġpodel": 9422,
  "ĠvÅ¡eobecnÃ©": 9423,
  "Ġjednak": 9424,
  "sy": 9425,
  "ĠskladÃ¡": 9426,
  "ĠminÃºte": 9427,
  "Ġcelosvet": 9428,
  "roÄį": 9429,
  "Ġafrik": 9430,
  "ĠpÃŃsomne": 9431,
  "Ġminulo": 9432,
  "Ġparfum": 9433,
  "ĠobÄįania": 9434,
  "Ġdovtedy": 9435,
  "ĠpÄ¾Ãºc": 9436,
  "Ġtvaru": 9437,
  "ĠÄįalÃºn": 9438,
  "Ġuprednost": 9439,
  "pÃŃsal": 9440,
  "Ġobjektu": 9441,
  "ĠnÃ¡jdeme": 9442,
  "Ġtav": 9443,
  "ĠÅ¡Ä¾ah": 9444,
  "Ġ48": 9445,
  "Ġsprej": 9446,
  "ĠzÃ¡bavy": 9447,
  "Ġpolovice": 9448,
  "Ġbielej": 9449,
  "Ġosvetlenie": 9450,
  "Ġryby": 9451,
  "Ġtypov": 9452,
  "ĠÅ¡tyrid": 9453,
  "ĠÄįÃŃsel": 9454,
  "Ġot": 9455,
  "Ġrozhran": 9456,
  "kup": 9457,
  "ĠrÃ´zno": 9458,
  "Ġprevent": 9459,
  "Ġodvtedy": 9460,
  "nejte": 9461,
  "ĠchÃ´dz": 9462,
  "nula": 9463,
  "Ġkvalifik": 9464,
  "Ġtanier": 9465,
  "Ġfacebook": 9466,
  "ĠvÃ¤ÄįÅ¡ia": 9467,
  "maz": 9468,
  "nejme": 9469,
  "Ġblu": 9470,
  "Ġhmyz": 9471,
  "Ġmys": 9472,
  "Ġanonym": 9473,
  "olÃ³gii": 9474,
  "Ġdivadla": 9475,
  "ĠpriateÄ¾mi": 9476,
  "Ġhniezd": 9477,
  "fotograf": 9478,
  "ĠnenÃ¡vis": 9479,
  "Ġnevedela": 9480,
  "ump": 9481,
  "Ġprinesie": 9482,
  "ĠovÄį": 9483,
  "Ġneform": 9484,
  "ĠÅ¡irokÃ©": 9485,
  "Ġkurzu": 9486,
  "Ġprelom": 9487,
  "Ġpodstatne": 9488,
  "ĠnÃ¡dor": 9489,
  "ĠnÃ¡zoru": 9490,
  "ektÃŃv": 9491,
  "ĠpleÅ¡": 9492,
  "ĠudalostÃŃ": 9493,
  "Ġopuch": 9494,
  "viem": 9495,
  "ĠlÃ¡skou": 9496,
  "ĠvyrieÅ¡iÅ¥": 9497,
  "ĠobleÄįenia": 9498,
  "Ġboji": 9499,
  "Ġkrut": 9500,
  "Ġmac": 9501,
  "ectvo": 9502,
  "Ġsekcii": 9503,
  "ĠpouÅ¾ÃŃvanÃŃ": 9504,
  "Ġmih": 9505,
  "ĠnÃ¡strojov": 9506,
  "Ġdou": 9507,
  "ĠmÃ©diÃ¡": 9508,
  "ĠprihlÃ¡Å¡": 9509,
  "Ġobklop": 9510,
  "ĠâĤ¬.": 9511,
  "itej": 9512,
  "ikÃºr": 9513,
  "ĠzÃ¡had": 9514,
  "Ġtatran": 9515,
  "ĠpÃ´dy": 9516,
  "Ġznal": 9517,
  "nikom": 9518,
  "neli": 9519,
  "ĠhraniÄį": 9520,
  "ĠslÃºÅ¾ia": 9521,
  "kÃ¡rov": 9522,
  "ĠmÃºzea": 9523,
  "ĠpredstÃ¡v": 9524,
  "inovou": 9525,
  "ĠjedenÃ¡": 9526,
  "Ġpripravuje": 9527,
  "Ġzrad": 9528,
  "ĠÅ¡tip": 9529,
  "Ġklen": 9530,
  "iÄįkovit": 9531,
  "lit": 9532,
  "Ġhodine": 9533,
  "Ġsevero": 9534,
  "Ġkauz": 9535,
  "Ġdrg": 9536,
  "ĠÄįinnostÃŃ": 9537,
  "Ġmedi": 9538,
  "Ġupr": 9539,
  "Ġrutin": 9540,
  "Ã¡rnym": 9541,
  "Ã¡nov": 9542,
  "ĠprestÃŃÅ¾": 9543,
  "Ġneskoro": 9544,
  "ĠspokojnÃ¡": 9545,
  "ĠzÃ¡ves": 9546,
  "ĠhistorickÃ©": 9547,
  "Ġautorov": 9548,
  "iansky": 9549,
  "ĠsÃ½r": 9550,
  "Ġdobyt": 9551,
  "ĠbÃ½valÃ½": 9552,
  "Ġdominant": 9553,
  "Ġbyte": 9554,
  "ĠÄ¾ubovoÄ¾": 9555,
  "ĠtradiÄįne": 9556,
  "ĠzreteÄ¾": 9557,
  "ĠletnÃ½ch": 9558,
  "Ġpravej": 9559,
  "ĠÄįiÅ¾m": 9560,
  "ovatelia": 9561,
  "ĠkrÃ¡Äį": 9562,
  "ĠnabÃŃj": 9563,
  "nela": 9564,
  "ĠpolÃŃcie": 9565,
  "Ġistotu": 9566,
  "Ġrisk": 9567,
  "ĠoznaÄįenie": 9568,
  "ĠvÃ½hÄ¾adom": 9569,
  "Ġfront": 9570,
  "ÃŃÄįky": 9571,
  "elu": 9572,
  "ĠÃºtl": 9573,
  "hostin": 9574,
  "Ġpolovicu": 9575,
  "Ġteplotu": 9576,
  "Ġposad": 9577,
  "ĠÅ¡vih": 9578,
  "ĠkampaÅĪ": 9579,
  "Ġtep": 9580,
  "ĠprÃŃpravok": 9581,
  "ĠdostupnosÅ¥": 9582,
  "ely": 9583,
  "Ġpovedali": 9584,
  "Ġ55": 9585,
  "ĠsamotnÃ¡": 9586,
  "ovisk": 9587,
  "ĠsrdeÄį": 9588,
  "Ġpodlahy": 9589,
  "Ġpohode": 9590,
  "ĠmuÄį": 9591,
  "Ġfyt": 9592,
  "ĠrealizovaÅ¥": 9593,
  "viedol": 9594,
  "Ġpredpisu": 9595,
  "Ġpoves": 9596,
  "Ġnedosta": 9597,
  "Ġmaterskej": 9598,
  "Ġimpulz": 9599,
  "Ġkv": 9600,
  "hotov": 9601,
  "ĠpoukÃ¡z": 9602,
  "ĠnÃ¡vrhy": 9603,
  "Ġimplement": 9604,
  "ĠjuÅ¾nej": 9605,
  "Ġtebe": 9606,
  "ĠvidÃŃme": 9607,
  "ĠhovorÃŃm": 9608,
  "Ġmesiaci": 9609,
  "inovom": 9610,
  "Ġnechcel": 9611,
  "Ġvzdelanie": 9612,
  "ĠvzdialenosÅ¥": 9613,
  "Ġpotok": 9614,
  "Ġcement": 9615,
  "Ġnekom": 9616,
  "ĠukÃ¡zal": 9617,
  "ĠÄįasÅ¥ou": 9618,
  "ĠtradiÄįnÃ©": 9619,
  "ĠidÃº": 9620,
  "itosti": 9621,
  "Ġrepublika": 9622,
  "ble": 9623,
  "ĠdÃ¡vajÃº": 9624,
  "ĠvÃ½zvy": 9625,
  "ĠzvlÃ¡Å¡tne": 9626,
  "Ġtelefonicky": 9627,
  "ĠpalÃ¡c": 9628,
  "ĠzaoberÃ¡": 9629,
  "Ġprofesor": 9630,
  "Ġzadnej": 9631,
  "Ġcti": 9632,
  "Ġdikt": 9633,
  "ĠpomÃ¡haÅ¥": 9634,
  "starost": 9635,
  "ĠkÅķm": 9636,
  "ĠagentÃºry": 9637,
  "Ġplynu": 9638,
  "Ġporuchy": 9639,
  "Ġnenaz": 9640,
  "ĠÄįaÄį": 9641,
  "ÃŃcie": 9642,
  "ĠportfÃ³li": 9643,
  "ifikovaÅ¥": 9644,
  "Ġnepozo": 9645,
  "nelo": 9646,
  "Ġpodmienkami": 9647,
  "ĠproblÃ©mu": 9648,
  "Ġstraty": 9649,
  "utÃ©": 9650,
  "Ġautora": 9651,
  "Ġulice": 9652,
  "Ġvrh": 9653,
  "ĠÅ¡i": 9654,
  "ĠprÃŃtomnosti": 9655,
  "ÅĪaj": 9656,
  "Ġblack": 9657,
  "enstvom": 9658,
  "ogram": 9659,
  "Ġzjednot": 9660,
  "ajÃºcom": 9661,
  "ole": 9662,
  "Ġplnohodnot": 9663,
  "Ġpravdy": 9664,
  "ĠvtÃ¡k": 9665,
  "Ġpuzdr": 9666,
  "Ġsebavedom": 9667,
  "ozel": 9668,
  "ĠnajvÃ¤ÄįÅ¡ou": 9669,
  "Ġnajdlh": 9670,
  "ĠodchÃ¡dz": 9671,
  "ĠmobilnÃ©": 9672,
  "Ġnedopo": 9673,
  "robiÅ¥": 9674,
  "ĠpieÅ¡Å¥": 9675,
  "Ġ75": 9676,
  "chÃ¡dz": 9677,
  "ĠdochÃ¡dz": 9678,
  "Ġwebe": 9679,
  "Ġchlapci": 9680,
  "Ġrafin": 9681,
  "ĠpÃ³r": 9682,
  "ĠprÃŃspevky": 9683,
  "otoÄį": 9684,
  "ĠpoÄıakovaÅ¥": 9685,
  "Ġodstup": 9686,
  "vÅ¡eobec": 9687,
  "Ġbudova": 9688,
  "ĠkrÃ¡sy": 9689,
  "Ġprejde": 9690,
  "ĠvypoÄįÃŃt": 9691,
  "zlost": 9692,
  "Ġbudove": 9693,
  "Ġvojakov": 9694,
  "Ġtapet": 9695,
  "Ġsvaly": 9696,
  "Ġnepodarilo": 9697,
  "Ġslobodu": 9698,
  "ĠposlednÃ¡": 9699,
  "ĠzÄ¾avy": 9700,
  "ĠnezabudnuteÄ¾": 9701,
  "ĠoranÅ¾": 9702,
  "ĠnÃ¡rad": 9703,
  "ĠuvedomiÅ¥": 9704,
  "ĠmÃ¤sa": 9705,
  "ĠopatrenÃŃ": 9706,
  "mami": 9707,
  "Ġrobili": 9708,
  "aÅ¾": 9709,
  "Ġkartu": 9710,
  "eckÃ½ch": 9711,
  "Ġdiskusie": 9712,
  "Ġkoncov": 9713,
  "kÃ½ÅĪ": 9714,
  "Ġobavy": 9715,
  "Ġstenu": 9716,
  "ĠvzduÅ¡": 9717,
  "Ġbrus": 9718,
  "Ġbiblio": 9719,
  "ĠkrÄį": 9720,
  "Ġdiskrimin": 9721,
  "ĠposkytovaÅ¥": 9722,
  "ĠhistÃ³riu": 9723,
  "ĠvybranÃ½ch": 9724,
  "Ġ34": 9725,
  "ĠtÃ½Å¾dni": 9726,
  "ianske": 9727,
  "Ġnatur": 9728,
  "Ġseg": 9729,
  "ĠbezpeÄįnostnÃ©": 9730,
  "Ġvyzv": 9731,
  "Ġlistov": 9732,
  "ĠobyvateÄ¾stva": 9733,
  "Äįania": 9734,
  "ĠkultÃºrneho": 9735,
  "Ġparadox": 9736,
  "Ġpoprad": 9737,
  "Ġglej": 9738,
  "ĠvyÅ¥aÅ¾": 9739,
  "ĠpokraÄįovanie": 9740,
  "ĠzÃ¡ujme": 9741,
  "Ġkonzist": 9742,
  "ĠkategÃ³riÃŃ": 9743,
  "Ġvyrast": 9744,
  "Ġneboj": 9745,
  "Ġdre": 9746,
  "ĠzvÃ¤ÄįÅ¡a": 9747,
  "ĠpÃ³di": 9748,
  "itosÅ¥": 9749,
  "Ġtakomto": 9750,
  "ĠlekÃ¡ri": 9751,
  "iÅ¡t": 9752,
  "ĠbezplatnÃ©": 9753,
  "Ġdovoz": 9754,
  "eckÃ©ho": 9755,
  "Ġutaj": 9756,
  "ĠzÃ¡suv": 9757,
  "Ġwi": 9758,
  "Ġprajem": 9759,
  "ofil": 9760,
  "Ġkonverz": 9761,
  "ĠprÃŃdav": 9762,
  "ectva": 9763,
  "ĠÄįele": 9764,
  "Ġtajomn": 9765,
  "Ġvietor": 9766,
  "35": 9767,
  "Ġslin": 9768,
  "Ã¡tmi": 9769,
  "Ġtehotn": 9770,
  "ĠdobrÃ½ch": 9771,
  "sco": 9772,
  "Ġcookie": 9773,
  "Ġsrdci": 9774,
  "Ġvojne": 9775,
  "ĠprÃŃrodnÃ½": 9776,
  "Ġhrali": 9777,
  "Ġkvapal": 9778,
  "ĠhorÄį": 9779,
  "ÃŃnom": 9780,
  "Ġopier": 9781,
  "ĠÄ¾udskÃ©ho": 9782,
  "Ġsplnomoc": 9783,
  "ĠveriÅ¥": 9784,
  "Ã³ri": 9785,
  "Ġvytvoril": 9786,
  "ĠÅ¡kodu": 9787,
  "otreb": 9788,
  "ĠÅ¾ivotu": 9789,
  "ĠpoÅ¡l": 9790,
  "ĠvziaÅ¥": 9791,
  "ĠÅ¾alob": 9792,
  "Ġneschop": 9793,
  "ĠodpoÄįi": 9794,
  "ĠleÅ¡t": 9795,
  "ĠpouÅ¾ÃŃvame": 9796,
  "ĠpovinnÃ©": 9797,
  "ĠkÃ¡b": 9798,
  "ĠzÃ¡stupca": 9799,
  "Ġkock": 9800,
  "Ġslabo": 9801,
  "Ġsyntet": 9802,
  "ĠrozlÃºÄį": 9803,
  "Ġjakub": 9804,
  "Ġobloh": 9805,
  "ĠlieÄįba": 9806,
  "Ġprotiv": 9807,
  "ĠudalosÅ¥": 9808,
  "ĠvypÃŃn": 9809,
  "Ġuzl": 9810,
  "ĠvyjadriÅ¥": 9811,
  "Ġnejas": 9812,
  "Ġpracoval": 9813,
  "Ġvino": 9814,
  "Ġvinohrad": 9815,
  "Ġintro": 9816,
  "nÃŃctvu": 9817,
  "Ġkvas": 9818,
  "ĠnemÃ´Å¾eme": 9819,
  "Ġzeleniny": 9820,
  "ĠvÃ½bornÃ©": 9821,
  "ĠnatoÄ¾ko": 9822,
  "ĠmÃ¡rie": 9823,
  "ĠkomunikÃ¡ciu": 9824,
  "alizÃ¡cia": 9825,
  "filtr": 9826,
  "Ġprostriedok": 9827,
  "lÃº": 9828,
  "nutÃ½m": 9829,
  "ĠzaÅ¡l": 9830,
  "ya": 9831,
  "atÃŃvneho": 9832,
  "ĠloÅ¾": 9833,
  "Ġpup": 9834,
  "Ġnechty": 9835,
  "Ġchybu": 9836,
  "Ġpozornosti": 9837,
  "ĠniekoÄ¾kÃ½mi": 9838,
  "ĠodoÅ¡lite": 9839,
  "Äįat": 9840,
  "ĠiÅ¡iel": 9841,
  "Ġradosti": 9842,
  "iteÄ¾nosÅ¥": 9843,
  "Ġrusko": 9844,
  "solvent": 9845,
  "ĠprÃ©mi": 9846,
  "Ġkarol": 9847,
  "ĠmiliÃ³na": 9848,
  "Ġnarodenia": 9849,
  "ĠvynikajÃºci": 9850,
  "Ġfirme": 9851,
  "Ġposkytovanie": 9852,
  "Ġprin": 9853,
  "plesniv": 9854,
  "ĠdoÄįÃŃt": 9855,
  "drat": 9856,
  "ÄįinÃ¡r": 9857,
  "ĠspoluprÃ¡ca": 9858,
  "reform": 9859,
  "Ã´b": 9860,
  "ĠdrobnÃ©": 9861,
  "Ġtank": 9862,
  "chodom": 9863,
  "rot": 9864,
  "ĠtabuÄ¾ky": 9865,
  "Ġ38": 9866,
  "Ġalkoholu": 9867,
  "tes": 9868,
  "alizmu": 9869,
  "Ġtechnickej": 9870,
  "Ġmotora": 9871,
  "ĠmÅ¡": 9872,
  "Ġbezpo": 9873,
  "ianskom": 9874,
  "ĠzÃ¡vere": 9875,
  "kedy": 9876,
  "ĠletnÃ©": 9877,
  "Ġokuliare": 9878,
  "ĠhistÃ³ria": 9879,
  "Ġodboj": 9880,
  "ovnÃŃ": 9881,
  "Ġmalt": 9882,
  "Ġpoplatky": 9883,
  "Ġpostupy": 9884,
  "Ġmanu": 9885,
  "oviska": 9886,
  "ĠspokojnÃŃ": 9887,
  "ĠdanÃŃ": 9888,
  "antom": 9889,
  "ĠsnaÅ¾ili": 9890,
  "Äįite": 9891,
  "vod": 9892,
  "Ġobliek": 9893,
  "ĠhereÄį": 9894,
  "ĠÄįistÃ½": 9895,
  "Ġpoet": 9896,
  "ĠmyseÄ¾": 9897,
  "ĠreÅ¾imu": 9898,
  "ĠsamostatnÃ©": 9899,
  "ĠvideÃ¡": 9900,
  "ĠvÃ½hradne": 9901,
  "Ġpredvy": 9902,
  "Ġdivadlo": 9903,
  "29": 9904,
  "ormi": 9905,
  "ĠmyslÃŃte": 9906,
  "ĠliteratÃºry": 9907,
  "Äįiny": 9908,
  "Ãºn": 9909,
  "Ġsaun": 9910,
  "ĠnajlepÅ¡ÃŃm": 9911,
  "majstr": 9912,
  "ovoÄįerv": 9913,
  "zvÃ¤z": 9914,
  "Ġprispieva": 9915,
  "Ġbazil": 9916,
  "Ġwellness": 9917,
  "izÃ¡ciami": 9918,
  "ĠdetskÃ½ch": 9919,
  "Ġproduc": 9920,
  "stÃºpiÅ¥": 9921,
  "lenia": 9922,
  "ĠobÄ¾ub": 9923,
  "imetr": 9924,
  "ĠvÃ½znamnÃ©": 9925,
  "Ġdun": 9926,
  "itnÃ©ho": 9927,
  "ĠochrÃ¡n": 9928,
  "Ġnevieme": 9929,
  "Ġhmoty": 9930,
  "Ġrobil": 9931,
  "Ã¡ct": 9932,
  "iÃ¡d": 9933,
  "Ġjohn": 9934,
  "Ġaud": 9935,
  "enÃŃn": 9936,
  "ĠvynikajÃºce": 9937,
  "ĠÄ¾udskej": 9938,
  "ĠÄ¾Ãºb": 9939,
  "Ġred": 9940,
  "Ġtohoto": 9941,
  "Ġpsycho": 9942,
  "Ġpredvypl": 9943,
  "Ġobyt": 9944,
  "Ġokno": 9945,
  "izÃ¡ciÃ¡ch": 9946,
  "Ġsatelit": 9947,
  "Ġluk": 9948,
  "ĠnedÃ´ver": 9949,
  "mÃ¡ha": 9950,
  "Ġdoraz": 9951,
  "Ġsuma": 9952,
  "ĠvoÄ¾nÃ©ho": 9953,
  "Ġklav": 9954,
  "Ġjedine": 9955,
  "ĠÃºnik": 9956,
  "ĠrozvÃŃjaÅ¥": 9957,
  "izÃ¡ciÃ¡m": 9958,
  "ĠvÅ¡etkom": 9959,
  "okedy": 9960,
  "inovÃ½mi": 9961,
  "Ġakou": 9962,
  "Ġkemp": 9963,
  "Ġskor": 9964,
  "Ġaute": 9965,
  "Ġnovou": 9966,
  "Ġexpon": 9967,
  "Ġnikde": 9968,
  "Äįerven": 9969,
  "iara": 9970,
  "Ġbiely": 9971,
  "Ġjubil": 9972,
  "ĠhodnÃ´t": 9973,
  "ĠveÄįera": 9974,
  "ini": 9975,
  "Ġexpanz": 9976,
  "Ġakr": 9977,
  "ĠÃŃr": 9978,
  "Ġvydar": 9979,
  "Ġfabul": 9980,
  "ologickÃ¡": 9981,
  "ĠtriÄįko": 9982,
  "ĠpoteÅ¡ÃŃ": 9983,
  "staj": 9984,
  "potreb": 9985,
  "ĠnÃ¡rodnÃ¡": 9986,
  "Ġmazn": 9987,
  "ĠvÃ¤ÄįÅ¡ÃŃch": 9988,
  "ujÃºcou": 9989,
  "Ġislam": 9990,
  "ĠroÄįnÃŃku": 9991,
  "Ġrecep": 9992,
  "Ġpovolenie": 9993,
  "Ã¡toroch": 9994,
  "iÄįi": 9995,
  "hy": 9996,
  "Ġtukov": 9997,
  "Ġvedomie": 9998,
  "ĠprÃŃkladom": 9999,
  "nor": 10000,
  "Ġnevyz": 10001,
  "Ġbesed": 10002,
  "ĠzÃ¡bavu": 10003,
  "kÃ¡ri": 10004,
  "Ġzrejm": 10005,
  "ĠstvÃ¡r": 10006,
  "ĠprinÃ¡Å¡ame": 10007,
  "ĠstarÅ¡ie": 10008,
  "Ġnesprav": 10009,
  "alizÃ¡ciu": 10010,
  "tÃŃvne": 10011,
  "rÃ¡Å¾a": 10012,
  "ĠhÄ¾adajÃº": 10013,
  "ĠnejakÃ©ho": 10014,
  "ĠbavÃŃ": 10015,
  "ĠfÃºz": 10016,
  "ĠepizÃ³d": 10017,
  "Ã¡Äįa": 10018,
  "izÃ¡tor": 10019,
  "Ġdiabet": 10020,
  "Ġdvomi": 10021,
  "ĠdarÃŃ": 10022,
  "Ġrieky": 10023,
  "ĠpoÄįtom": 10024,
  "oviny": 10025,
  "Ġkreh": 10026,
  "Ġpohybuje": 10027,
  "nÃŃctiev": 10028,
  "covÃ½ch": 10029,
  "ĠskutoÄįnÃ©": 10030,
  "Ġrumun": 10031,
  "ĠvÃ½bornÃ½": 10032,
  "ĠovplyvÅĪuje": 10033,
  "Ġhrozn": 10034,
  "ĠuvidÃŃme": 10035,
  "Ġrelevant": 10036,
  "Ġtexty": 10037,
  "ĠÅ¡kriep": 10038,
  "ĠÃºÄįinnÃ©": 10039,
  "Ġprivat": 10040,
  "Ġchalup": 10041,
  "ani": 10042,
  "nenej": 10043,
  "ĠprÃŃÅ¥aÅ¾": 10044,
  "ĠudeÄ¾": 10045,
  "ĠstruÄįn": 10046,
  "ĠvoÄ¾nÃ©": 10047,
  "ovz": 10048,
  "ĠspoÄ¾ahliv": 10049,
  "ÃŃvnom": 10050,
  "ĠuÅ¾itoÄįnÃ©": 10051,
  "ĠareÃ¡li": 10052,
  "ĠplaÄį": 10053,
  "ĠobjavÃŃ": 10054,
  "Äįime": 10055,
  "Ġsw": 10056,
  "Ġrit": 10057,
  "ĠpouÅ¾ite": 10058,
  "ĠprekroÄį": 10059,
  "Ġdefekt": 10060,
  "avel": 10061,
  "Ġkorup": 10062,
  "berie": 10063,
  "ĠnedÃ¡vn": 10064,
  "ĠaplikÃ¡ciÃŃ": 10065,
  "ĠstiahnuÅ¥": 10066,
  "itnÃ©": 10067,
  "ĠstÃ¡n": 10068,
  "Ġriadenie": 10069,
  "ĠÅ¡kodliv": 10070,
  "ovanosÅ¥": 10071,
  "Ġdehydr": 10072,
  "Ġlehoty": 10073,
  "ĠÅ¾iline": 10074,
  "Ġcor": 10075,
  "ĠpoÅ¾ÃŃva": 10076,
  "ĠÅ¡truktur": 10077,
  "ĠzÃ¡pasov": 10078,
  "ĠÅ¡Å¥astia": 10079,
  "Ġporadenstvo": 10080,
  "Äįiatku": 10081,
  "Ġsponz": 10082,
  "mÃ¡": 10083,
  "Ġkardi": 10084,
  "Ġabsolvent": 10085,
  "Ġprodu": 10086,
  "ĠpÃŃsmen": 10087,
  "Ġmaf": 10088,
  "Ġ600": 10089,
  "atÃŃvnym": 10090,
  "ĠÅ¡iestich": 10091,
  "az": 10092,
  "Ġosobou": 10093,
  "Ġdetox": 10094,
  "ĠzastupiteÄ¾stva": 10095,
  "Ġgrad": 10096,
  "nÃŃctvami": 10097,
  "Ġtort": 10098,
  "ĠtermÃŃne": 10099,
  "Ġpacienta": 10100,
  "lievaÄį": 10101,
  "centraliz": 10102,
  "Ġkraso": 10103,
  "ĠposÃ¡d": 10104,
  "!\"": 10105,
  "Ġvyhovuje": 10106,
  "alisti": 10107,
  "ĠvysvetliÅ¥": 10108,
  "Ġprvou": 10109,
  "ianska": 10110,
  "Ġmiz": 10111,
  "ĠsÃºboru": 10112,
  "ĠnasledujÃºce": 10113,
  "oby": 10114,
  "predsed": 10115,
  "Ġspomal": 10116,
  "Ġobjavil": 10117,
  "ĠÄįasy": 10118,
  "ĠvyhlÃ¡senie": 10119,
  "Ã¡la": 10120,
  "Ġstarosti": 10121,
  "Ġkolekcie": 10122,
  "ĠsÃŃdlom": 10123,
  "oniz": 10124,
  "ĠkatarÃŃn": 10125,
  "Ġzuzan": 10126,
  "Ġpramen": 10127,
  "ĠzastaviÅ¥": 10128,
  "ĠzÃŃska": 10129,
  "dokument": 10130,
  "ĠzÃºÄįastniÅ¥": 10131,
  "Ġnariadenie": 10132,
  "Ġzmluve": 10133,
  "Äįkar": 10134,
  "hu": 10135,
  "Ġstredisko": 10136,
  "Ġvedci": 10137,
  "Å¡trument": 10138,
  "ogen": 10139,
  "ĠteÅ¡ÃŃme": 10140,
  "Ġotup": 10141,
  "ĠmyÅ¡lienka": 10142,
  "ĠzÃ¡Å¾itky": 10143,
  "Ġprerok": 10144,
  "ĠdestinÃ¡cia": 10145,
  "Ġried": 10146,
  "ĠplÃ¡ny": 10147,
  "Ġfascin": 10148,
  "Ġbezpro": 10149,
  "ianskych": 10150,
  "ĠnieÄįom": 10151,
  "ĠvychutnaÅ¥": 10152,
  "ĠpredÃ¡vajÃºcim": 10153,
  "nÃŃctvach": 10154,
  "Ġkapitul": 10155,
  "ĠsvÃ¤tÃ½": 10156,
  "ĠpochvÃ¡l": 10157,
  "Ġlogo": 10158,
  "ĠjednoduchÃ½m": 10159,
  "ĠpredvyplnenÃº": 10160,
  "ĠprirodzenÃ©": 10161,
  "ĠÅ¾ivotnÃ½": 10162,
  "nÃŃctvam": 10163,
  "Ġwa": 10164,
  "ĠkrÃ¡tkodob": 10165,
  "end": 10166,
  "ĠportrÃ©t": 10167,
  "ĠvolÃ¡": 10168,
  "ĠschrÃ¡n": 10169,
  "Ġchytr": 10170,
  "ĠpoÄįÃŃtaÄįa": 10171,
  "ĠzÃŃskanie": 10172,
  "ĠsÃºrod": 10173,
  "gin": 10174,
  "ĠslovenskÃº": 10175,
  "ĠgenerÃ¡l": 10176,
  "Ġnohavice": 10177,
  "Ġskvele": 10178,
  "Ġlive": 10179,
  "dlo": 10180,
  "Ġrodinou": 10181,
  "ĠdlhÃ¡": 10182,
  "Ġstromov": 10183,
  "ĠslneÄįnÃ©": 10184,
  "ĠzemplÃŃn": 10185,
  "Ä¾Ãºtost": 10186,
  "ĠspokojnosÅ¥": 10187,
  "ĠoceÃ¡n": 10188,
  "ĠlieÄįbe": 10189,
  "Ġbm": 10190,
  "ĠÅ¾ivnost": 10191,
  "tory": 10192,
  "Ġsnehu": 10193,
  "ĠsprostredkovateÄ¾": 10194,
  "Ġfigur": 10195,
  "ĠrÃ´znorod": 10196,
  "Ġspracov": 10197,
  "ĠnÃ¡ter": 10198,
  "Ġtemper": 10199,
  "ĠbatoÅ¾": 10200,
  "ĠdÃ´kladne": 10201,
  "viedli": 10202,
  "Ġekv": 10203,
  "Ġspodnej": 10204,
  "Ġposol": 10205,
  "Ġasistent": 10206,
  "ĠkniÅ¾nice": 10207,
  "Ġderm": 10208,
  "Ġmakr": 10209,
  "neniu": 10210,
  "ĠÃºstret": 10211,
  "ĠtÃ©mou": 10212,
  "ĠtrvaÅ¥": 10213,
  "ĠarÃ³m": 10214,
  "Ġcyklo": 10215,
  "ĠobÅ¾al": 10216,
  "ĠrodinnÃ©ho": 10217,
  "Ġzamestnanec": 10218,
  "ĠskonÄįila": 10219,
  "inÅ¡tal": 10220,
  "ĠnainÅ¡tal": 10221,
  "ĠÅ¡kolskÃ©ho": 10222,
  "Ġleta": 10223,
  "illa": 10224,
  "ĠbielkovÃŃn": 10225,
  "ĠÅ¡ach": 10226,
  "Ġbuch": 10227,
  "ÃŃvnejÅ¡ie": 10228,
  "ĠprÃŃjmu": 10229,
  "Ġpoviem": 10230,
  "ĠmÃ¡v": 10231,
  "Ġchlor": 10232,
  "ĠpÃ´sobenia": 10233,
  "Ġlump": 10234,
  "ĠskutoÄįnÃ½": 10235,
  "ĠrozdeÄ¾": 10236,
  "Ġnoteboo": 10237,
  "Ġtvorba": 10238,
  "ĠpribÃºd": 10239,
  "ĠprÃŃÄįinou": 10240,
  "Ġbied": 10241,
  "ĠrodinnÃ©": 10242,
  "Ãºcia": 10243,
  "ĠscenÃ¡r": 10244,
  "Ġobrazu": 10245,
  "Ġsestry": 10246,
  "ĠpoÄįte": 10247,
  "Äįine": 10248,
  "ĠaktÃŃvny": 10249,
  "ĠadvokÃ¡t": 10250,
  "ĠmenÅ¡ÃŃch": 10251,
  "chudob": 10252,
  "Ġbene": 10253,
  "ĠsamotnÃ©ho": 10254,
  "Ġuzdrav": 10255,
  "Ġdielne": 10256,
  "Ġmicrosoft": 10257,
  "Ġkompletne": 10258,
  "Ġcharakteru": 10259,
  "ĠnÃ¡vÅ¡tevy": 10260,
  "Ġnemohli": 10261,
  "Ġgrand": 10262,
  "Ġzuby": 10263,
  "ovci": 10264,
  "Ġkultu": 10265,
  "Ġcity": 10266,
  "Ġunik": 10267,
  "Ġenergia": 10268,
  "ĠnajniÅ¾": 10269,
  "ĠvitamÃŃnov": 10270,
  "Ġnepochop": 10271,
  "ĠmalÃ½m": 10272,
  "Ġnemil": 10273,
  "ĠvÃ¤ÄįÅ¡ej": 10274,
  "iom": 10275,
  "Ġpobeh": 10276,
  "ĠfarbÃ¡ch": 10277,
  "ĠsÃºpera": 10278,
  "ĠneporuÅ¡": 10279,
  "ĠuvidÃŃte": 10280,
  "ĠstaraÅ¥": 10281,
  "oÅ¥": 10282,
  "ĠnapÃ¤tie": 10283,
  "Ġzbroj": 10284,
  "ĠpolitickÃ½ch": 10285,
  "Ġfirmu": 10286,
  "enty": 10287,
  "Ã¡rstve": 10288,
  "ĠvÃ¡b": 10289,
  "ĠlepÅ¡iu": 10290,
  "ĠvymeniÅ¥": 10291,
  "ĠkÃºpeÄ¾ÅĪa": 10292,
  "prevÃ¡dz": 10293,
  "ĠnahradiÅ¥": 10294,
  "Ġperfektne": 10295,
  "istika": 10296,
  "ĠbohatÃ©": 10297,
  "gram": 10298,
  "Ġzistil": 10299,
  "Ġbro": 10300,
  "ĠprÃŃruÄį": 10301,
  "Ã¡rnu": 10302,
  "Ġprevedenie": 10303,
  "75": 10304,
  "kyÅĪou": 10305,
  "df": 10306,
  "ĠkomunikÃ¡cia": 10307,
  "ĠovlÃ¡daÅ¥": 10308,
  "ĠangaÅ¾": 10309,
  "Ġvady": 10310,
  "inovÃŃ": 10311,
  "ĠÅ¾ehl": 10312,
  "Ġmiestnej": 10313,
  "ĠmiliÃ³n": 10314,
  "ĠkrÃ¡Ä¾a": 10315,
  "ĠneurÄį": 10316,
  "ĠbÃ¡Å¥": 10317,
  "ĠpravidelnÃ©": 10318,
  "Ġzosil": 10319,
  "inovÃ©mu": 10320,
  "Ġzasp": 10321,
  "ĠÅ¾alÃºdk": 10322,
  "ĠspÃ´sobu": 10323,
  "Ġblo": 10324,
  "Ġlex": 10325,
  "Ġchrom": 10326,
  "ĠpreÅ¡li": 10327,
  "ĠÅ¡katuÄ¾": 10328,
  "Ġbalzam": 10329,
  "ĠukazujÃº": 10330,
  "Ġfr": 10331,
  "ĠÃ´sm": 10332,
  "Ġodboru": 10333,
  "Ġautorka": 10334,
  "ĠoltÃ¡r": 10335,
  "ĠnaspÃ¤Å¥": 10336,
  "ĠmedzinÃ¡rodnÃ©": 10337,
  "ĠvyuÅ¾itia": 10338,
  "Ġhmat": 10339,
  "Ġperspekt": 10340,
  "ĠzapamÃ¤t": 10341,
  "Ġposkytnutie": 10342,
  "ĠhodvÃ¡b": 10343,
  "ĠspoÄįiatku": 10344,
  "Ġky": 10345,
  "Ġpoznamen": 10346,
  "Ġzab": 10347,
  "ĠzostaÅ¥": 10348,
  "ĠoÄįakÃ¡vaÅ¥": 10349,
  "ĠÃºmr": 10350,
  "ward": 10351,
  "ĠbanskÃ¡": 10352,
  "ĠruÅ¾om": 10353,
  "ĠrobÃŃm": 10354,
  "hnaÅ¥": 10355,
  "Ġvstav": 10356,
  "Ġpovedom": 10357,
  "Ġdialekt": 10358,
  "ĠnerieÅ¡": 10359,
  "Ġadrese": 10360,
  "Ġpodmienkou": 10361,
  "Ġemocion": 10362,
  "ĠtelefÃ³nu": 10363,
  "Ġdizajnom": 10364,
  "ovaÄįa": 10365,
  "ĠdokonalÃ½": 10366,
  "ĠurobÃŃ": 10367,
  "Ã¡na": 10368,
  "Ġopravy": 10369,
  "ĠpodstatnÃ©": 10370,
  "Ġbakter": 10371,
  "Ġintu": 10372,
  "Ġpretrv": 10373,
  "Ġdopos": 10374,
  "Ġobeh": 10375,
  "Ġvznikli": 10376,
  "Ġbre": 10377,
  "ĠzabrÃ¡niÅ¥": 10378,
  "ĠzloÅ¾iek": 10379,
  "Ġzasiel": 10380,
  "ĠnÃ¡pis": 10381,
  "ologickÃº": 10382,
  "ĠuvedenÃ¡": 10383,
  "Ġnenas": 10384,
  "Ġsur": 10385,
  "nikmi": 10386,
  "ĠrodiÄįom": 10387,
  "Ã¤z": 10388,
  "ĠsvetovÃ½ch": 10389,
  "ÃŃÄįat": 10390,
  "ĠpouÅ¾ÃŃvateÄ¾ov": 10391,
  "ĠpÃ´de": 10392,
  "ĠdobrÃ©ho": 10393,
  "ĠporozprÃ¡v": 10394,
  "Ġmajster": 10395,
  "ĠvÃ¡Å¡mu": 10396,
  "idov": 10397,
  "alitu": 10398,
  "ĠvÃ½stavbu": 10399,
  "ĠchrÃŃp": 10400,
  "Ġvysp": 10401,
  "Ġmyslel": 10402,
  "Ġbuk": 10403,
  "Ġgratul": 10404,
  "ĠkaÅ¾": 10405,
  "ĠÄįervenÃ©": 10406,
  "Ġtech": 10407,
  "Ġzam": 10408,
  "stra": 10409,
  "ĠpostÃ¡v": 10410,
  "Ġprezr": 10411,
  "ocyt": 10412,
  "Ġhybrid": 10413,
  "ĠzvÃ¤zu": 10414,
  "lite": 10415,
  "natÃ©": 10416,
  "ĠukÃ¡Å¾e": 10417,
  "ĠfyzickÃ¡": 10418,
  "Ġinterval": 10419,
  "Ġvrstvy": 10420,
  "ĠaplikÃ¡cii": 10421,
  "ĠzÃ¡kony": 10422,
  "Ġordin": 10423,
  "ovosÅ¥": 10424,
  "ĠzelenÃ¡": 10425,
  "Ġstrak": 10426,
  "itnÃ½ch": 10427,
  "koles": 10428,
  "Ġpotrebujem": 10429,
  "ĠniekoÄ¾kokrÃ¡t": 10430,
  "otou": 10431,
  "wn": 10432,
  "Ġocenenie": 10433,
  "itÃ½m": 10434,
  "Ġkrku": 10435,
  "ĠrÃ½chlosÅ¥ou": 10436,
  "ĠroÄ¾": 10437,
  "Ġhlava": 10438,
  "niky": 10439,
  "nikÃ¡r": 10440,
  "Ġpretekov": 10441,
  "Ġpery": 10442,
  "Ġobjektov": 10443,
  "ÃŃkovÃ¡": 10444,
  "Ġnajsil": 10445,
  "ĠvytvorÃŃ": 10446,
  "Ġnaviac": 10447,
  "Ġoddiel": 10448,
  "Ã¡kovi": 10449,
  "enskÃ½": 10450,
  "bytoÄį": 10451,
  "Ġsvor": 10452,
  "ĠÅ¾er": 10453,
  "ĠstrÃºh": 10454,
  "ĠÅ¡irokej": 10455,
  "ĠobÄ¾ÃºbenÃ½": 10456,
  "ĠsÃºk": 10457,
  "ĠvitamÃŃny": 10458,
  "ÃºÅĪ": 10459,
  "Ġzabal": 10460,
  "Ġpoukaz": 10461,
  "olÃ³govia": 10462,
  "Ġvymaz": 10463,
  "Ã¡Äįi": 10464,
  "Ġbohom": 10465,
  "ĠtraÅ¥": 10466,
  "Ġjun": 10467,
  "Ġiphone": 10468,
  "ĠneskutoÄįne": 10469,
  "ĠzapojiÅ¥": 10470,
  "ĠdovoliÅ¥": 10471,
  "Ġprojekte": 10472,
  "Ġcro": 10473,
  "Ã¡vanÃ½": 10474,
  "Ġvyberiete": 10475,
  "Ġverzii": 10476,
  "raf": 10477,
  "rel": 10478,
  "ĠoboznÃ¡mi": 10479,
  "Ġprocesov": 10480,
  "Ġposluch": 10481,
  "Ġvyhlas": 10482,
  "ĠplagÃ¡t": 10483,
  "ĠprÃŃpadnÃ©": 10484,
  "Ġkapely": 10485,
  "Ġorganizuje": 10486,
  "cel": 10487,
  "lime": 10488,
  "ĠsprÃ¡vania": 10489,
  "Ġindex": 10490,
  "ĠvyhlÃ¡sil": 10491,
  "olit": 10492,
  "Ġlinky": 10493,
  "tora": 10494,
  "Ġplot": 10495,
  "ĠdoposiaÄ¾": 10496,
  "ĠÃºdol": 10497,
  "ĠnepretrÅ¾": 10498,
  "Ġmilosrd": 10499,
  "inkou": 10500,
  "Ġproced": 10501,
  "Ġnajvhod": 10502,
  "eto": 10503,
  "pla": 10504,
  "Ġinformoval": 10505,
  "Ġpiesne": 10506,
  "Ġpohotov": 10507,
  "ĠinvestÃŃcie": 10508,
  "Ġmajor": 10509,
  "Å¥ah": 10510,
  "ĠideÃ¡lna": 10511,
  "ĠprecÃŃz": 10512,
  "Ġdisciplin": 10513,
  "Ġhodnotenia": 10514,
  "ĠprÃŃves": 10515,
  "Ġfrank": 10516,
  "Ġandroid": 10517,
  "Ġworkshop": 10518,
  "Ġdruhou": 10519,
  "ÄįnÃ¡": 10520,
  "Ġkvalifikov": 10521,
  "ĠhrozÃŃ": 10522,
  "Ġpanv": 10523,
  "ĠÄįlenskÃ½ch": 10524,
  "iavam": 10525,
  "Ġmatej": 10526,
  "ĠÅ¡tÃ¡te": 10527,
  "Ġmimochodom": 10528,
  "ĠdetskÃ½": 10529,
  "Ġsyp": 10530,
  "Ġihrisko": 10531,
  "ĠnajÅ¥aÅ¾": 10532,
  "Ġprekvapenie": 10533,
  "Ġprocesy": 10534,
  "Ġ65": 10535,
  "Ãºrou": 10536,
  "nate": 10537,
  "dÃ´ver": 10538,
  "ologickÃ½m": 10539,
  "rovnoprÃ¡v": 10540,
  "kryÅ¥": 10541,
  "Ġverejne": 10542,
  "ĠzavÃ¡dz": 10543,
  "Ġbachr": 10544,
  "mnohonÃ¡sob": 10545,
  "Ġnesprie": 10546,
  "Ġregistra": 10547,
  "Ġrozozn": 10548,
  "ĠrealizÃ¡ciu": 10549,
  "ĠobÃ¡l": 10550,
  "Ġzobrazenie": 10551,
  "Ġmohut": 10552,
  "Ã¡rstiev": 10553,
  "ĠhistorickÃ½ch": 10554,
  "iteÄ¾mi": 10555,
  "itnej": 10556,
  "Ġveru": 10557,
  "Ġsmet": 10558,
  "asy": 10559,
  "Ġkaka": 10560,
  "ĠpovaÅ¾ovaÅ¥": 10561,
  "Ġzisku": 10562,
  "ĠobÄįan": 10563,
  "Ġtechnika": 10564,
  "Ġ180": 10565,
  "Ġstavba": 10566,
  "ĠmiliÃ³ny": 10567,
  "Ġbral": 10568,
  "ĠzabÃŃj": 10569,
  "ĠdistribÃº": 10570,
  "ĠzÃ¡por": 10571,
  "ĠrozprÃ¡vaÅ¥": 10572,
  "Ġdosiahli": 10573,
  "inkami": 10574,
  "iaka": 10575,
  "Ġsliv": 10576,
  "Ġkompatibil": 10577,
  "ĠzlÃ½": 10578,
  "zi": 10579,
  "Äįeku": 10580,
  "rus": 10581,
  "Ġvypuk": 10582,
  "Ġendo": 10583,
  "ĠklasickÃ½": 10584,
  "Ġneposled": 10585,
  "ĠposlÃºÅ¾": 10586,
  "ĠfÃ¡ze": 10587,
  "konÃ¡": 10588,
  "ĠÅ¡trb": 10589,
  "ĠukÃ¡zali": 10590,
  "Ġvyjadril": 10591,
  "ĠvlhkosÅ¥": 10592,
  "Ġglaz": 10593,
  "ĠdÃ©mon": 10594,
  "ĠsÃ©ria": 10595,
  "Ġuplynul": 10596,
  "Ġotrav": 10597,
  "Ġbard": 10598,
  "Ġpatent": 10599,
  "Ġorto": 10600,
  "Ġpriechod": 10601,
  "Ġnedup": 10602,
  "ĠantÃ©n": 10603,
  "Ġryt": 10604,
  "atÃŃvnu": 10605,
  "ĠlaboratÃ³r": 10606,
  "now": 10607,
  "Ġsou": 10608,
  "Ġzde": 10609,
  "ĠdomÃ¡cej": 10610,
  "ĠzadrÅ¾": 10611,
  "Ġkampane": 10612,
  "ĠnajlepÅ¡ia": 10613,
  "ĠsÄįÃŃt": 10614,
  "rb": 10615,
  "her": 10616,
  "atickÃ½ch": 10617,
  "Ġoddelenia": 10618,
  "ĠtovÃ¡r": 10619,
  "ĠmestÃ¡": 10620,
  "Ġalo": 10621,
  "ĠvÃ½sledku": 10622,
  "amp": 10623,
  "Ġkap": 10624,
  "Ġvlhkosti": 10625,
  "Ġnemecko": 10626,
  "Ġkurzy": 10627,
  "ĠpouÅ¾ÃŃvam": 10628,
  "Ġslovin": 10629,
  "ea": 10630,
  "beraÅ¥": 10631,
  "ĠvytvorenÃ©": 10632,
  "Ġkrik": 10633,
  "ĠmodernÃ½ch": 10634,
  "Ġsynchron": 10635,
  "ĠÅ¾iadnom": 10636,
  "ĠakÃºt": 10637,
  "ĠsvetovÃ©ho": 10638,
  "ĠposlaÅ¥": 10639,
  "atlet": 10640,
  "otom": 10641,
  "ĠmnohÃ½mi": 10642,
  "ĠmetÃ³da": 10643,
  "Ã©rom": 10644,
  "Ġego": 10645,
  "Ġhluk": 10646,
  "ĠdanÃ©": 10647,
  "ĠÄįl": 10648,
  "ĠatmosfÃ©ra": 10649,
  "Ġkrb": 10650,
  "izaÄįnÃ©": 10651,
  "ĠpodporujÃº": 10652,
  "ĠÃºrod": 10653,
  "ĠvÃ½roÄįia": 10654,
  "ĠÄįierny": 10655,
  "ĠvyzerajÃº": 10656,
  "ĠnÃ¡dych": 10657,
  "mich": 10658,
  "iacu": 10659,
  "enÄįnÃ©": 10660,
  "ĠvyrobiÅ¥": 10661,
  "Ġbrut": 10662,
  "ĠnapÃŃÅ¡te": 10663,
  "kyÅĪu": 10664,
  "Ġdetermin": 10665,
  "ĠukonÄįenÃŃ": 10666,
  "ĠÅ¡tÃ¡toch": 10667,
  "Ġelektriny": 10668,
  "Ġdotaz": 10669,
  "Ġbicykl": 10670,
  "ĠzoznÃ¡mi": 10671,
  "Å¡a": 10672,
  "ĠvÃ½kone": 10673,
  "predstav": 10674,
  "Ġun": 10675,
  "peci": 10676,
  "Ġvyhrad": 10677,
  "Ġchyba": 10678,
  "Ġtriede": 10679,
  "Ġvydal": 10680,
  "ĠnecÃŃt": 10681,
  "Ġplnenia": 10682,
  "Äįina": 10683,
  "Ġprejavuje": 10684,
  "ĠmÃ¡g": 10685,
  "izaÄįnÃ½ch": 10686,
  "populÃ¡r": 10687,
  "Ġzboj": 10688,
  "Ġzoskup": 10689,
  "Ġjazv": 10690,
  "ĠzÃºÄįt": 10691,
  "ĠnedokÃ¡Å¾e": 10692,
  "Ġ39": 10693,
  "ĠhruÅ¡": 10694,
  "ĠfÃŃn": 10695,
  "ĠminÃºtu": 10696,
  "eka": 10697,
  "Ġnemohla": 10698,
  "Ġdra": 10699,
  "Ġvan": 10700,
  "ĠpodporovaÅ¥": 10701,
  "bi": 10702,
  "Ġimproviz": 10703,
  "Ã¡rstvom": 10704,
  "ĠuÅ¡": 10705,
  "cyk": 10706,
  "Ġneist": 10707,
  "ĠvoÄ¾no": 10708,
  "trol": 10709,
  "ĠkrÃ¡l": 10710,
  "vlani": 10711,
  "ĠÃºdajmi": 10712,
  "ĠpreÅ¡ove": 10713,
  "ĠbÃ½vajÃº": 10714,
  "iavate": 10715,
  "ĠobÄįianskeho": 10716,
  "Ġlokality": 10717,
  "Ã¡rstvu": 10718,
  "yne": 10719,
  "Ġpokrm": 10720,
  "ĠÃºseku": 10721,
  "ĠbezpeÄįne": 10722,
  "Ġzrod": 10723,
  "ĠÄįerveno": 10724,
  "Ġkolie": 10725,
  "Ġnepriazniv": 10726,
  "idy": 10727,
  "Ġnemecka": 10728,
  "Ġuch": 10729,
  "tiahnut": 10730,
  "ĠkamoÅ¡": 10731,
  "Ġturnaja": 10732,
  "ĠpÃ´vodnÃ½": 10733,
  "ĠvÃ´ne": 10734,
  "ĠprofesionÃ¡lny": 10735,
  "period": 10736,
  "ĠkaÄį": 10737,
  "rÃ¡sÅ¥": 10738,
  "ts": 10739,
  "Ġsin": 10740,
  "ĠsprÃ¡vca": 10741,
  "Ġetiket": 10742,
  "ĠÅ¡peciÃ¡lny": 10743,
  "Ġkredit": 10744,
  "Ġapel": 10745,
  "ÃŃvnou": 10746,
  "abstin": 10747,
  "Ġdiely": 10748,
  "ĠÃºspeÅ¡nÃ½": 10749,
  "ĠzÃ¡vi": 10750,
  "Ġzado": 10751,
  "ĠradosÅ¥ou": 10752,
  "Ġnajrad": 10753,
  "ĠslÃºch": 10754,
  "ĠvitamÃŃnu": 10755,
  "ĠzaujÃŃmavÃ¡": 10756,
  "ĠnÃ¡sob": 10757,
  "ĠotÃ¡zkou": 10758,
  "nÃ¡Å¡ajÃº": 10759,
  "Ã¡rstvach": 10760,
  "Ã¡rstvam": 10761,
  "Ã¡rstvami": 10762,
  "ĠlekÃ¡rov": 10763,
  "Ġkvalitnej": 10764,
  "krvÃ¡c": 10765,
  "Ġjazdu": 10766,
  "Ġautori": 10767,
  "ĠstranÃ¡ch": 10768,
  "ĠzrekonÅ¡tru": 10769,
  "Ġstudn": 10770,
  "ĠÅ¡tr": 10771,
  "Ġpole": 10772,
  "ĠlahÃ´d": 10773,
  "valent": 10774,
  "ĠposlednÃ©ho": 10775,
  "ÄįnÃ©ho": 10776,
  "Ġhospit": 10777,
  "Ġpostreh": 10778,
  "ĠzÃ¡kladnÃ½": 10779,
  "Ġbasket": 10780,
  "Ġbasketbal": 10781,
  "Ġfarbou": 10782,
  "Ġdop": 10783,
  "ĠprÅ¡": 10784,
  "Ġrovnakej": 10785,
  "ĠzrÃ½chl": 10786,
  "ĠÅ¡esÅ¥desiat": 10787,
  "ĠzÃ¡sielky": 10788,
  "Ġtermin": 10789,
  "Å¥aÅ¾": 10790,
  "ĠobÅ¥aÅ¾": 10791,
  "ĠdÃ¡me": 10792,
  "Ġlode": 10793,
  "Ġpruh": 10794,
  "Ġparametr": 10795,
  "ĠcieÄ¾ov": 10796,
  "ĠreÄįi": 10797,
  "Ġhrk": 10798,
  "ĠnajvyÅ¡Å¡ie": 10799,
  "Ġtipy": 10800,
  "ĠamatÃ©r": 10801,
  "ektÃŃve": 10802,
  "ĠnehnuteÄ¾nosÅ¥": 10803,
  "ĠmlÃ¡deÅ¾e": 10804,
  "ĠÃºÄįes": 10805,
  "ĠriaditeÄ¾a": 10806,
  "ĠrespektÃŃve": 10807,
  "Ġfavor": 10808,
  "Ġbalenia": 10809,
  "ĠbanÃ¡n": 10810,
  "ĠspoloÄįenskÃ©": 10811,
  "ĠbohatÃ½": 10812,
  "Ġvybeh": 10813,
  "ĠnapÃŃn": 10814,
  "Ġpodiv": 10815,
  "ĠterÃ©n": 10816,
  "ĠkrÃ¡su": 10817,
  "Ġrovnomer": 10818,
  "ĠfajÄį": 10819,
  "niÄįkami": 10820,
  "ĠznaÄįne": 10821,
  "ĠÅ¡pecialist": 10822,
  "ĠuteÄį": 10823,
  "wor": 10824,
  "Ġautent": 10825,
  "ĠvidÃŃte": 10826,
  "ĠpreloÅ¾": 10827,
  "ajÅ¡ej": 10828,
  "ĠÄįervenÃ¡": 10829,
  "iavaÅ¡": 10830,
  "natej": 10831,
  "Ġtretie": 10832,
  "Ġwh": 10833,
  "Ġkanal": 10834,
  "Ġplnom": 10835,
  "ĠÃºraz": 10836,
  "ĠpredchÃ¡dzajÃºcich": 10837,
  "ĠnemÃ´Å¾ete": 10838,
  "Ġsevernej": 10839,
  "Ġdobeh": 10840,
  "Ġmiluje": 10841,
  "Ġneplat": 10842,
  "ĠcestovnÃ©ho": 10843,
  "Ġpotvrdzuje": 10844,
  "ĠwebovÃ©": 10845,
  "ĠnenÃ¡roÄį": 10846,
  "Ġmc": 10847,
  "Ġkontin": 10848,
  "ĠtÃºr": 10849,
  "ovu": 10850,
  "adlami": 10851,
  "ĠdetskÃ¡": 10852,
  "ĠnevadÃŃ": 10853,
  "kÃºp": 10854,
  "adlÃ¡ch": 10855,
  "Ġut": 10856,
  "ĠdÄºÅ¾ku": 10857,
  "Ġluci": 10858,
  "ostup": 10859,
  "ĠzaloÅ¾enÃ©": 10860,
  "ĠkÃ¡vu": 10861,
  "Ġpodnikanie": 10862,
  "Ġpoznatky": 10863,
  "ÃŃcia": 10864,
  "ĠniÄįom": 10865,
  "ĠinÅ¡titÃºcie": 10866,
  "Ġdosahuje": 10867,
  "ĠnadÄįas": 10868,
  "ĠsÃŃdlo": 10869,
  "ĠpomaranÄį": 10870,
  "ĠpotrebnÃ¡": 10871,
  "ĠprekrÃ¡s": 10872,
  "Ġmomente": 10873,
  "Ġdohode": 10874,
  "ĠnÃ¡roky": 10875,
  "lenÃ½": 10876,
  "ĠformÃ¡t": 10877,
  "ĠdÃ¡vku": 10878,
  "Ġstavbu": 10879,
  "Ġjacht": 10880,
  "Ġposlanec": 10881,
  "ĠnajrÃ´zn": 10882,
  "ĠscÃ©ny": 10883,
  "Ġrukou": 10884,
  "ĠstÃ¡lo": 10885,
  "Ġchar": 10886,
  "Ġadvent": 10887,
  "ĠspÄºÅĪa": 10888,
  "iteÄ¾nej": 10889,
  "ĠvzdelÃ¡vacie": 10890,
  "Ġ37": 10891,
  "Ġstarosta": 10892,
  "ĠkÃºpeÄ¾ne": 10893,
  "ĠmlÄį": 10894,
  "ĠÅ¡trajk": 10895,
  "ĠodiÅ¡iel": 10896,
  "Ġjahod": 10897,
  "Ġjednotka": 10898,
  "ĠkabÃŃn": 10899,
  "ĠvÃ½slov": 10900,
  "ĠÅ¡tÃ¡tnych": 10901,
  "Ġfakulty": 10902,
  "Ġdanom": 10903,
[...]
